{
  "version": "1.0",
  "truncation": null,
  "padding": null,
  "added_tokens": [
    {
      "id": 0,
      "content": "<pad>",
      "single_word": false,
      "lstrip": false,
      "rstrip": false,
      "normalized": false,
      "special": true
    },
    {
      "id": 1,
      "content": "<bos>",
      "single_word": false,
      "lstrip": false,
      "rstrip": false,
      "normalized": false,
      "special": true
    },
    {
      "id": 2,
      "content": "<eos>",
      "single_word": false,
      "lstrip": false,
      "rstrip": false,
      "normalized": false,
      "special": true
    },
    {
      "id": 3,
      "content": "<mask>",
      "single_word": false,
      "lstrip": false,
      "rstrip": false,
      "normalized": false,
      "special": true
    },
    {
      "id": 4,
      "content": "<unk>",
      "single_word": false,
      "lstrip": false,
      "rstrip": false,
      "normalized": false,
      "special": true
    },
    {
      "id": 5,
      "content": "<1-0>",
      "single_word": false,
      "lstrip": false,
      "rstrip": false,
      "normalized": false,
      "special": true
    },
    {
      "id": 6,
      "content": "<0-1>",
      "single_word": false,
      "lstrip": false,
      "rstrip": false,
      "normalized": false,
      "special": true
    },
    {
      "id": 7,
      "content": "<1/2>",
      "single_word": false,
      "lstrip": false,
      "rstrip": false,
      "normalized": false,
      "special": true
    }
  ],
  "normalizer": null,
  "pre_tokenizer": {
    "type": "WhitespaceSplit"
  },
  "post_processor": null,
  "decoder": null,
  "model": {
    "type": "BPE",
    "dropout": null,
    "unk_token": "<unk>",
    "continuing_subword_prefix": null,
    "end_of_word_suffix": null,
    "fuse_unk": false,
    "byte_fallback": false,
    "ignore_merges": false,
    "vocab": {
      "<pad>": 0,
      "<bos>": 1,
      "<eos>": 2,
      "<mask>": 3,
      "<unk>": 4,
      "<1-0>": 5,
      "<0-1>": 6,
      "<1/2>": 7,
      "1": 8,
      "2": 9,
      "3": 10,
      "4": 11,
      "5": 12,
      "6": 13,
      "7": 14,
      "8": 15,
      "a": 16,
      "b": 17,
      "c": 18,
      "d": 19,
      "e": 20,
      "f": 21,
      "g": 22,
      "h": 23,
      "n": 24,
      "q": 25,
      "r": 26,
      "f3": 27,
      "f6": 28,
      "4d": 29,
      "e5": 30,
      "g1": 31,
      "c6": 32,
      "e2": 33,
      "e7": 34,
      "c3": 35,
      "d2": 36,
      "f1": 37,
      "d7": 38,
      "g8": 39,
      "c1": 40,
      "e4": 41,
      "b5": 42,
      "f8": 43,
      "f2": 44,
      "d5": 45,
      "f4": 46,
      "h6": 47,
      "d1": 48,
      "d6": 49,
      "h4": 50,
      "a6": 51,
      "g7": 52,
      "b7": 53,
      "e6": 54,
      "e8": 55,
      "f5": 56,
      "b1": 57,
      "c5": 58,
      "e1": 59,
      "g2": 60,
      "c4": 61,
      "h3": 62,
      "c7": 63,
      "g4": 64,
      "h5": 65,
      "b8": 66,
      "g3": 67,
      "d4": 68,
      "g5": 69,
      "a5": 70,
      "b3": 71,
      "d3": 72,
      "b6": 73,
      "c8": 74,
      "e3": 75,
      "a3": 76,
      "a4": 77,
      "d8": 78,
      "a8": 79,
      "b2": 80,
      "b4": 81,
      "a7": 82,
      "c2": 83,
      "g6": 84,
      "h7": 85,
      "a2": 86,
      "h1": 87,
      "h2": 88,
      "f7": 89,
      "a1": 90,
      "h8": 91,
      "g8f6": 92,
      "4d3": 93,
      "g1f3": 94,
      "4d7": 95,
      "b1c3": 96,
      "c7c6": 97,
      "4d5": 98,
      "e7e6": 99,
      "4d2": 100,
      "e1g1": 101,
      "e2e4": 102,
      "b7b5": 103,
      "e8g8": 104,
      "b8c6": 105,
      "h7h6": 106,
      "e7e5": 107,
      "d2d4": 108,
      "e4e5": 109,
      "c2c4": 110,
      "h4d": 111,
      "e2e3": 112,
      "f4e5": 113,
      "h6h5": 114,
      "a6a5": 115,
      "g2g3": 116,
      "b8d7": 117,
      "b2b3": 118,
      "a7a6": 119,
      "4d7d5": 120,
      "f1e2": 121,
      "f1e1": 122,
      "f8e8": 123,
      "f2f3": 124,
      "h4h5": 125,
      "c7c5": 126,
      "c8d7": 127,
      "a2a3": 128,
      "c4d3": 129,
      "c4d5": 130,
      "f3e5": 131,
      "4d1": 132,
      "g1h1": 133,
      "f1c4": 134,
      "f8e7": 135,
      "f8c5": 136,
      "f4f3": 137,
      "d1c1": 138,
      "b7b6": 139,
      "a8b8": 140,
      "a1d1": 141,
      "d4d7d5": 142,
      "e4d5": 143,
      "f4d": 144,
      "f6e5": 145,
      "f6g7": 146,
      "f6f5": 147,
      "f6g6": 148,
      "4d8": 149,
      "c6b5": 150,
      "e2f3": 151,
      "c3d5": 152,
      "d2d4d7d5": 153,
      "f1d3": 154,
      "d7d5": 155,
      "g8h8": 156,
      "h6g7": 157,
      "d1d2": 158,
      "d6d5": 159,
      "h4f5": 160,
      "h4h3": 161,
      "g7g5": 162,
      "e6d5": 163,
      "e8d8": 164,
      "g2g1": 165,
      "c4b5": 166,
      "h3h4": 167,
      "h5h6": 168,
      "d4c5": 169,
      "g5g4": 170,
      "a5a6": 171,
      "a5a4": 172,
      "c8b7": 173,
      "d8e7": 174,
      "b4c5": 175,
      "c2c3": 176,
      "h2h4": 177,
      "h2h3": 178,
      "f7f6": 179,
      "e2e4e7e5": 180,
      "e4d3": 181,
      "f3f2": 182,
      "f6g4": 183,
      "g1f2": 184,
      "g1g2": 185,
      "c6c7": 186,
      "d2d1": 187,
      "d2d3": 188,
      "f1g2": 189,
      "c1d2": 190,
      "c1b1": 191,
      "c1g5": 192,
      "e4c3": 193,
      "e4f4": 194,
      "f8d6": 195,
      "f8g7": 196,
      "f8f7": 197,
      "g7f8": 198,
      "g7g6": 199,
      "b7a8": 200,
      "e6e5": 201,
      "e8d7": 202,
      "f5g4": 203,
      "h5h4": 204,
      "b8b7": 205,
      "d4f3": 206,
      "e3e4": 207,
      "a3a2": 208,
      "a4b5": 209,
      "d8e8": 210,
      "b4c3": 211,
      "b4a5": 212,
      "a7b6": 213,
      "a7a8": 214,
      "a2a4": 215,
      "f7f5": 216,
      "h7h6g5": 217,
      "h4d6": 218,
      "d4d1": 219,
      "e4d2": 220,
      "f3f6": 221,
      "f3f4": 222,
      "f3h3": 223,
      "f3e3": 224,
      "f6d7": 225,
      "e5e6": 226,
      "g1h2": 227,
      "c6c5": 228,
      "e2d2": 229,
      "e2f1": 230,
      "e7d6": 231,
      "d2e4": 232,
      "f1g1": 233,
      "f1b5": 234,
      "d7d6": 235,
      "d7e8": 236,
      "d7b6": 237,
      "g8f8": 238,
      "g8g7": 239,
      "c1b2": 240,
      "e4g5": 241,
      "f8g8": 242,
      "f8c8": 243,
      "f2e2": 244,
      "f2f1": 245,
      "f2f4": 246,
      "f2e1": 247,
      "f2g3": 248,
      "f2f4e5": 249,
      "d5c4": 250,
      "f4f5": 251,
      "f4g5": 252,
      "d6c6": 253,
      "h4h6": 254,
      "a6b7": 255,
      "a6a7": 256,
      "b7a6": 257,
      "e6f5": 258,
      "e8e7": 259,
      "f5f4": 260,
      "b1c1": 261,
      "c5c8": 262,
      "e1e7": 263,
      "e1c1": 264,
      "g2c3": 265,
      "g2g4": 266,
      "h3h2": 267,
      "g3g4": 268,
      "d4e5": 269,
      "a5b6": 270,
      "e3f2": 271,
      "a3a4": 272,
      "a4a3": 273,
      "d8c7": 274,
      "d8a5": 275,
      "a8c8": 276,
      "b2b1": 277,
      "b4c2c3": 278,
      "c2d3": 279,
      "g6f5": 280,
      "h7g8": 281,
      "a2b3": 282,
      "h2h1": 283,
      "f7e6": 284,
      "h8g8": 285,
      "h8h7": 286,
      "g8f6b1c3": 287,
      "g1f3e7e6": 288,
      "b1c3g8f6": 289,
      "e1g1e8g8": 290,
      "c2c4e7e6": 291,
      "g2g3c8": 292,
      "f4d4": 293,
      "e2e4e7e5g1f3": 294,
      "b4d3": 295,
      "c4d2": 296,
      "d4d2": 297,
      "f4d7": 298,
      "f4d7d5": 299,
      "g4d": 300,
      "g4d3": 301,
      "g4d8": 302,
      "f3d2": 303,
      "f3c1": 304,
      "f3e4": 305,
      "f3d1": 306,
      "f3d3": 307,
      "f6d5": 308,
      "f6h5": 309,
      "f6a2a3": 310,
      "e5e4": 311,
      "e5d6": 312,
      "e5f3e5": 313,
      "e5d4d1": 314,
      "g1f1": 315,
      "g1g3": 316,
      "g1f1e2": 317,
      "e2e": 318,
      "e2f2": 319,
      "e2d3": 320,
      "e2b8d7": 321,
      "e2g1f1e2": 322,
      "e7f8": 323,
      "e7d8": 324,
      "c3f6": 325,
      "c3b5": 326,
      "c3c4": 327,
      "c3g3": 328,
      "c3b2": 329,
      "c3c2": 330,
      "d2e2": 331,
      "d2c1": 332,
      "d2d5": 333,
      "d2a1": 334,
      "f1f2": 335,
      "f1f4": 336,
      "d7e5": 337,
      "d7b5": 338,
      "d7f8": 339,
      "g8e7": 340,
      "g8c1": 341,
      "g8c8": 342,
      "c1c3": 343,
      "c1c8": 344,
      "c1e3": 345,
      "c1a3": 346,
      "c1c8d7": 347,
      "e4e7": 348,
      "e4g3": 349,
      "b5c4": 350,
      "b5b6": 351,
      "f2g2": 352,
      "f2e3": 353,
      "f2g6": 354,
      "f2h1": 355,
      "d5e4": 356,
      "d5d4": 357,
      "d5b3": 358,
      "d5e4c3": 359,
      "f4g3": 360,
      "h6h7": 361,
      "d1h5": 362,
      "d1b3": 363,
      "d1d3": 364,
      "d1a4": 365,
      "d6e5": 366,
      "d6a6": 367,
      "d6g4": 368,
      "h4e7": 369,
      "h4g3": 370,
      "h4e2f1": 371,
      "a6a3": 372,
      "a6f6g4": 373,
      "g7h7": 374,
      "g7e2f3": 375,
      "b7c6": 376,
      "e6f6": 377,
      "e6d7": 378,
      "e8e1": 379,
      "f5d7e8": 380,
      "b1b5": 381,
      "b1a3": 382,
      "c5g1": 383,
      "c5d6": 384,
      "c5b6": 385,
      "e1e2": 386,
      "e1d2": 387,
      "e1f1": 388,
      "e1f2": 389,
      "g2f3": 390,
      "g2h6h5": 391,
      "c4c3": 392,
      "c4g8h8": 393,
      "h3h6": 394,
      "h3g3": 395,
      "c7d6": 396,
      "c7b6": 397,
      "g4f5": 398,
      "g4h3": 399,
      "g4g6": 400,
      "h5g6": 401,
      "h5h4d6": 402,
      "b8a8": 403,
      "g3h": 404,
      "d4c6c5": 405,
      "g5h6": 406,
      "a5c4": 407,
      "a5b2": 408,
      "b3c4": 409,
      "b3a4": 410,
      "b3b2": 411,
      "b3b4": 412,
      "d3d4": 413,
      "d3g6": 414,
      "b6b5": 415,
      "b6a6": 416,
      "b6a4": 417,
      "b6a5b2": 418,
      "c8c1": 419,
      "e3f4": 420,
      "d8d7": 421,
      "d8d6": 422,
      "a8d8": 423,
      "a8a7": 424,
      "b2b4c5": 425,
      "c2b3": 426,
      "g6g2": 427,
      "h7h5": 428,
      "a2d2": 429,
      "h1g1": 430,
      "h1f1": 431,
      "h1h3": 432,
      "h2g1": 433,
      "a1b1": 434,
      "h8g7": 435,
      "g1f3h7h6g5": 436,
      "b1c3d5e4c3": 437,
      "c7c6f4e5": 438,
      "c7c6d2d4d7d5": 439,
      "e1g1c6": 440,
      "e2e4c7c6d2d4d7d5": 441,
      "b7b5a2a4": 442,
      "h4d1": 443,
      "b2b3a6a5": 444,
      "a7a6b5": 445,
      "f8e7e2e3": 446,
      "b7b6b1c3": 447,
      "f4d6": 448,
      "f6e5f6": 449,
      "f6g7f6": 450,
      "c6b5c4b5": 451,
      "e2f3h8h7": 452,
      "c3d5e6d5": 453,
      "h6g7h6": 454,
      "g7g5g3": 455,
      "d4c5d4": 456,
      "g5g4f3": 457,
      "e4d3e4": 458,
      "d2d1c4": 459,
      "a4b5c6b5": 460,
      "d8a5c1d2": 461,
      "h2h1q": 462,
      "e2e4e7e5g1f3b8c6": 463,
      "b1c3d5e4c3e4": 464,
      "e2e4c7c6d2d4d7d5b1c3d5e4c3e4": 465,
      "4e5": 466,
      "4c3": 467,
      "6d4": 468,
      "8d2": 469,
      "a4d": 470,
      "a4d7": 471,
      "a4d5": 472,
      "a4d2": 473,
      "a4d1": 474,
      "b4d2": 475,
      "b4d1": 476,
      "c4d8": 477,
      "d4d3": 478,
      "d4d7": 479,
      "d4d5": 480,
      "d4d8": 481,
      "e4d8": 482,
      "g4d7": 483,
      "g4d2": 484,
      "g4d1": 485,
      "h4d2": 486,
      "nb8c6": 487,
      "qa8": 488,
      "qf8f7": 489,
      "re1g1": 490,
      "f3c6": 491,
      "f3e2": 492,
      "f3b5": 493,
      "f3d5": 494,
      "f3h4": 495,
      "f3e1": 496,
      "f3g2": 497,
      "f3g4": 498,
      "f3d4": 499,
      "f3b3": 500,
      "f3a2": 501,
      "f3a1": 502,
      "f3b8c6": 503,
      "f3f4f3": 504,
      "f3d7d5": 505,
      "f3h4f5": 506,
      "f3e6e5": 507,
      "f3h4h6": 508,
      "f3e1e7": 509,
      "f3g2c3": 510,
      "f3g3g4": 511,
      "f3g4d": 512,
      "f3d7e5": 513,
      "f3d6e5": 514,
      "f3c7c6f4e5": 515,
      "f6c6": 516,
      "f6e7": 517,
      "f6d6": 518,
      "f6e6": 519,
      "f6h3": 520,
      "f6b2": 521,
      "f6h8": 522,
      "f6b1c3": 523,
      "f6e4e5": 524,
      "f6f8e8": 525,
      "f6e4d3": 526,
      "f6c1d2": 527,
      "f6e4c3": 528,
      "f6f8g7": 529,
      "f6e4d2": 530,
      "f6h7g8": 531,
      "f6g4d3": 532,
      "f6f1f4": 533,
      "f6a6a3": 534,
      "f6h1g1": 535,
      "f6f3a1": 536,
      "e5e2": 537,
      "e5f4": 538,
      "e5g7": 539,
      "e5f5": 540,
      "e5d4": 541,
      "e5a1": 542,
      "e5c7c6": 543,
      "e5f6g6": 544,
      "e5d8e8": 545,
      "e5d7b6": 546,
      "e5e1c1": 547,
      "e5d4e5": 548,
      "e5f3c1": 549,
      "e5e4d3e4": 550,
      "e5f3d7d5": 551,
      "g1h6": 552,
      "g1g7": 553,
      "g1f5": 554,
      "g1b1": 555,
      "g1e3": 556,
      "g1g8h8": 557,
      "g1h5h6": 558,
      "g1b2b1": 559,
      "g1h8h7": 560,
      "g1e2b8d7": 561,
      "c6e7": 562,
      "c6d7": 563,
      "c6c1": 564,
      "c6d5": 565,
      "c6h6": 566,
      "c6d6": 567,
      "c6b7": 568,
      "c6d4": 569,
      "c6a5": 570,
      "c6b4": 571,
      "c6g8f6": 572,
      "c6d2d4": 573,
      "c6b2b3": 574,
      "c6g1f2": 575,
      "c6f3h3": 576,
      "c6b4c2c3": 577,
      "c6c2d3": 578,
      "c6f3e4": 579,
      "c6a8d8": 580,
      "c6h1h3": 581,
      "c6f6e5f6": 582,
      "c6e4d3e4": 583,
      "c6f6c6": 584,
      "c6e5d4e5": 585,
      "e2e7": 586,
      "e2c3": 587,
      "e2c1": 588,
      "e2e8": 589,
      "e2h5": 590,
      "e2g3": 591,
      "e2b4": 592,
      "e2h7h6": 593,
      "e2a7a6": 594,
      "e2c7c5": 595,
      "e2c6c7": 596,
      "e2c1b1": 597,
      "e2e6e5": 598,
      "e2a6f6g4": 599
    },
    "merges": [
      [
        "f",
        "3"
      ],
      [
        "f",
        "6"
      ],
      [
        "4",
        "d"
      ],
      [
        "e",
        "5"
      ],
      [
        "g",
        "1"
      ],
      [
        "c",
        "6"
      ],
      [
        "e",
        "2"
      ],
      [
        "e",
        "7"
      ],
      [
        "c",
        "3"
      ],
      [
        "d",
        "2"
      ],
      [
        "f",
        "1"
      ],
      [
        "d",
        "7"
      ],
      [
        "g",
        "8"
      ],
      [
        "c",
        "1"
      ],
      [
        "e",
        "4"
      ],
      [
        "b",
        "5"
      ],
      [
        "f",
        "8"
      ],
      [
        "f",
        "2"
      ],
      [
        "d",
        "5"
      ],
      [
        "f",
        "4"
      ],
      [
        "h",
        "6"
      ],
      [
        "d",
        "1"
      ],
      [
        "d",
        "6"
      ],
      [
        "h",
        "4"
      ],
      [
        "a",
        "6"
      ],
      [
        "g",
        "7"
      ],
      [
        "b",
        "7"
      ],
      [
        "e",
        "6"
      ],
      [
        "e",
        "8"
      ],
      [
        "f",
        "5"
      ],
      [
        "b",
        "1"
      ],
      [
        "c",
        "5"
      ],
      [
        "e",
        "1"
      ],
      [
        "g",
        "2"
      ],
      [
        "c",
        "4"
      ],
      [
        "h",
        "3"
      ],
      [
        "c",
        "7"
      ],
      [
        "g",
        "4"
      ],
      [
        "h",
        "5"
      ],
      [
        "b",
        "8"
      ],
      [
        "g",
        "3"
      ],
      [
        "d",
        "4"
      ],
      [
        "g",
        "5"
      ],
      [
        "a",
        "5"
      ],
      [
        "b",
        "3"
      ],
      [
        "d",
        "3"
      ],
      [
        "b",
        "6"
      ],
      [
        "c",
        "8"
      ],
      [
        "e",
        "3"
      ],
      [
        "a",
        "3"
      ],
      [
        "a",
        "4"
      ],
      [
        "d",
        "8"
      ],
      [
        "a",
        "8"
      ],
      [
        "b",
        "2"
      ],
      [
        "b",
        "4"
      ],
      [
        "a",
        "7"
      ],
      [
        "c",
        "2"
      ],
      [
        "g",
        "6"
      ],
      [
        "h",
        "7"
      ],
      [
        "a",
        "2"
      ],
      [
        "h",
        "1"
      ],
      [
        "h",
        "2"
      ],
      [
        "f",
        "7"
      ],
      [
        "a",
        "1"
      ],
      [
        "h",
        "8"
      ],
      [
        "g8",
        "f6"
      ],
      [
        "4d",
        "3"
      ],
      [
        "g1",
        "f3"
      ],
      [
        "4d",
        "7"
      ],
      [
        "b1",
        "c3"
      ],
      [
        "c7",
        "c6"
      ],
      [
        "4d",
        "5"
      ],
      [
        "e7",
        "e6"
      ],
      [
        "4d",
        "2"
      ],
      [
        "e1",
        "g1"
      ],
      [
        "e2",
        "e4"
      ],
      [
        "b7",
        "b5"
      ],
      [
        "e8",
        "g8"
      ],
      [
        "b8",
        "c6"
      ],
      [
        "h7",
        "h6"
      ],
      [
        "e7",
        "e5"
      ],
      [
        "d2",
        "d4"
      ],
      [
        "e4",
        "e5"
      ],
      [
        "c2",
        "c4"
      ],
      [
        "h",
        "4d"
      ],
      [
        "e2",
        "e3"
      ],
      [
        "f4",
        "e5"
      ],
      [
        "h6",
        "h5"
      ],
      [
        "a6",
        "a5"
      ],
      [
        "g2",
        "g3"
      ],
      [
        "b8",
        "d7"
      ],
      [
        "b2",
        "b3"
      ],
      [
        "a7",
        "a6"
      ],
      [
        "4d7",
        "d5"
      ],
      [
        "f1",
        "e2"
      ],
      [
        "f1",
        "e1"
      ],
      [
        "f8",
        "e8"
      ],
      [
        "f2",
        "f3"
      ],
      [
        "h4",
        "h5"
      ],
      [
        "c7",
        "c5"
      ],
      [
        "c8",
        "d7"
      ],
      [
        "a2",
        "a3"
      ],
      [
        "c",
        "4d3"
      ],
      [
        "c",
        "4d5"
      ],
      [
        "f3",
        "e5"
      ],
      [
        "4d",
        "1"
      ],
      [
        "g1",
        "h1"
      ],
      [
        "f1",
        "c4"
      ],
      [
        "f8",
        "e7"
      ],
      [
        "f8",
        "c5"
      ],
      [
        "f4",
        "f3"
      ],
      [
        "d1",
        "c1"
      ],
      [
        "b7",
        "b6"
      ],
      [
        "a8",
        "b8"
      ],
      [
        "a1",
        "d1"
      ],
      [
        "d",
        "4d7d5"
      ],
      [
        "e",
        "4d5"
      ],
      [
        "f",
        "4d"
      ],
      [
        "f6",
        "e5"
      ],
      [
        "f6",
        "g7"
      ],
      [
        "f6",
        "f5"
      ],
      [
        "f6",
        "g6"
      ],
      [
        "4d",
        "8"
      ],
      [
        "c6",
        "b5"
      ],
      [
        "e2",
        "f3"
      ],
      [
        "c3",
        "d5"
      ],
      [
        "d2",
        "d4d7d5"
      ],
      [
        "f1",
        "d3"
      ],
      [
        "d7",
        "d5"
      ],
      [
        "g8",
        "h8"
      ],
      [
        "h6",
        "g7"
      ],
      [
        "d1",
        "d2"
      ],
      [
        "d6",
        "d5"
      ],
      [
        "h4",
        "f5"
      ],
      [
        "h4",
        "h3"
      ],
      [
        "g7",
        "g5"
      ],
      [
        "e6",
        "d5"
      ],
      [
        "e8",
        "d8"
      ],
      [
        "g2",
        "g1"
      ],
      [
        "c4",
        "b5"
      ],
      [
        "h3",
        "h4"
      ],
      [
        "h5",
        "h6"
      ],
      [
        "d4",
        "c5"
      ],
      [
        "g5",
        "g4"
      ],
      [
        "a5",
        "a6"
      ],
      [
        "a5",
        "a4"
      ],
      [
        "c8",
        "b7"
      ],
      [
        "d8",
        "e7"
      ],
      [
        "b4",
        "c5"
      ],
      [
        "c2",
        "c3"
      ],
      [
        "h2",
        "h4"
      ],
      [
        "h2",
        "h3"
      ],
      [
        "f7",
        "f6"
      ],
      [
        "e2e4",
        "e7e5"
      ],
      [
        "e",
        "4d3"
      ],
      [
        "f3",
        "f2"
      ],
      [
        "f6",
        "g4"
      ],
      [
        "g1",
        "f2"
      ],
      [
        "g1",
        "g2"
      ],
      [
        "c6",
        "c7"
      ],
      [
        "d2",
        "d1"
      ],
      [
        "d2",
        "d3"
      ],
      [
        "f1",
        "g2"
      ],
      [
        "c1",
        "d2"
      ],
      [
        "c1",
        "b1"
      ],
      [
        "c1",
        "g5"
      ],
      [
        "e4",
        "c3"
      ],
      [
        "e4",
        "f4"
      ],
      [
        "f8",
        "d6"
      ],
      [
        "f8",
        "g7"
      ],
      [
        "f8",
        "f7"
      ],
      [
        "g7",
        "f8"
      ],
      [
        "g7",
        "g6"
      ],
      [
        "b7",
        "a8"
      ],
      [
        "e6",
        "e5"
      ],
      [
        "e8",
        "d7"
      ],
      [
        "f5",
        "g4"
      ],
      [
        "h5",
        "h4"
      ],
      [
        "b8",
        "b7"
      ],
      [
        "d4",
        "f3"
      ],
      [
        "e3",
        "e4"
      ],
      [
        "a3",
        "a2"
      ],
      [
        "a4",
        "b5"
      ],
      [
        "d8",
        "e8"
      ],
      [
        "b4",
        "c3"
      ],
      [
        "b4",
        "a5"
      ],
      [
        "a7",
        "b6"
      ],
      [
        "a7",
        "a8"
      ],
      [
        "a2",
        "a4"
      ],
      [
        "f7",
        "f5"
      ],
      [
        "h7h6",
        "g5"
      ],
      [
        "h4d",
        "6"
      ],
      [
        "d",
        "4d1"
      ],
      [
        "e",
        "4d2"
      ],
      [
        "f3",
        "f6"
      ],
      [
        "f3",
        "f4"
      ],
      [
        "f3",
        "h3"
      ],
      [
        "f3",
        "e3"
      ],
      [
        "f6",
        "d7"
      ],
      [
        "e5",
        "e6"
      ],
      [
        "g1",
        "h2"
      ],
      [
        "c6",
        "c5"
      ],
      [
        "e2",
        "d2"
      ],
      [
        "e2",
        "f1"
      ],
      [
        "e7",
        "d6"
      ],
      [
        "d2",
        "e4"
      ],
      [
        "f1",
        "g1"
      ],
      [
        "f1",
        "b5"
      ],
      [
        "d7",
        "d6"
      ],
      [
        "d7",
        "e8"
      ],
      [
        "d7",
        "b6"
      ],
      [
        "g8",
        "f8"
      ],
      [
        "g8",
        "g7"
      ],
      [
        "c1",
        "b2"
      ],
      [
        "e4",
        "g5"
      ],
      [
        "f8",
        "g8"
      ],
      [
        "f8",
        "c8"
      ],
      [
        "f2",
        "e2"
      ],
      [
        "f2",
        "f1"
      ],
      [
        "f2",
        "f4"
      ],
      [
        "f2",
        "e1"
      ],
      [
        "f2",
        "g3"
      ],
      [
        "f2",
        "f4e5"
      ],
      [
        "d5",
        "c4"
      ],
      [
        "f4",
        "f5"
      ],
      [
        "f4",
        "g5"
      ],
      [
        "d6",
        "c6"
      ],
      [
        "h4",
        "h6"
      ],
      [
        "a6",
        "b7"
      ],
      [
        "a6",
        "a7"
      ],
      [
        "b7",
        "a6"
      ],
      [
        "e6",
        "f5"
      ],
      [
        "e8",
        "e7"
      ],
      [
        "f5",
        "f4"
      ],
      [
        "b1",
        "c1"
      ],
      [
        "c5",
        "c8"
      ],
      [
        "e1",
        "e7"
      ],
      [
        "e1",
        "c1"
      ],
      [
        "g2",
        "c3"
      ],
      [
        "g2",
        "g4"
      ],
      [
        "h3",
        "h2"
      ],
      [
        "g3",
        "g4"
      ],
      [
        "d4",
        "e5"
      ],
      [
        "a5",
        "b6"
      ],
      [
        "e3",
        "f2"
      ],
      [
        "a3",
        "a4"
      ],
      [
        "a4",
        "a3"
      ],
      [
        "d8",
        "c7"
      ],
      [
        "d8",
        "a5"
      ],
      [
        "a8",
        "c8"
      ],
      [
        "b2",
        "b1"
      ],
      [
        "b4",
        "c2c3"
      ],
      [
        "c2",
        "d3"
      ],
      [
        "g6",
        "f5"
      ],
      [
        "h7",
        "g8"
      ],
      [
        "a2",
        "b3"
      ],
      [
        "h2",
        "h1"
      ],
      [
        "f7",
        "e6"
      ],
      [
        "h8",
        "g8"
      ],
      [
        "h8",
        "h7"
      ],
      [
        "g8f6",
        "b1c3"
      ],
      [
        "g1f3",
        "e7e6"
      ],
      [
        "b1c3",
        "g8f6"
      ],
      [
        "e1g1",
        "e8g8"
      ],
      [
        "c2c4",
        "e7e6"
      ],
      [
        "g2g3",
        "c8"
      ],
      [
        "f4d",
        "4"
      ],
      [
        "e2e4e7e5",
        "g1f3"
      ],
      [
        "b",
        "4d3"
      ],
      [
        "c",
        "4d2"
      ],
      [
        "d",
        "4d2"
      ],
      [
        "f",
        "4d7"
      ],
      [
        "f",
        "4d7d5"
      ],
      [
        "g",
        "4d"
      ],
      [
        "g",
        "4d3"
      ],
      [
        "g",
        "4d8"
      ],
      [
        "f3",
        "d2"
      ],
      [
        "f3",
        "c1"
      ],
      [
        "f3",
        "e4"
      ],
      [
        "f3",
        "d1"
      ],
      [
        "f3",
        "d3"
      ],
      [
        "f6",
        "d5"
      ],
      [
        "f6",
        "h5"
      ],
      [
        "f6",
        "a2a3"
      ],
      [
        "e5",
        "e4"
      ],
      [
        "e5",
        "d6"
      ],
      [
        "e5",
        "f3e5"
      ],
      [
        "e5",
        "d4d1"
      ],
      [
        "g1",
        "f1"
      ],
      [
        "g1",
        "g3"
      ],
      [
        "g1",
        "f1e2"
      ],
      [
        "e2",
        "e"
      ],
      [
        "e2",
        "f2"
      ],
      [
        "e2",
        "d3"
      ],
      [
        "e2",
        "b8d7"
      ],
      [
        "e2",
        "g1f1e2"
      ],
      [
        "e7",
        "f8"
      ],
      [
        "e7",
        "d8"
      ],
      [
        "c3",
        "f6"
      ],
      [
        "c3",
        "b5"
      ],
      [
        "c3",
        "c4"
      ],
      [
        "c3",
        "g3"
      ],
      [
        "c3",
        "b2"
      ],
      [
        "c3",
        "c2"
      ],
      [
        "d2",
        "e2"
      ],
      [
        "d2",
        "c1"
      ],
      [
        "d2",
        "d5"
      ],
      [
        "d2",
        "a1"
      ],
      [
        "f1",
        "f2"
      ],
      [
        "f1",
        "f4"
      ],
      [
        "d7",
        "e5"
      ],
      [
        "d7",
        "b5"
      ],
      [
        "d7",
        "f8"
      ],
      [
        "g8",
        "e7"
      ],
      [
        "g8",
        "c1"
      ],
      [
        "g8",
        "c8"
      ],
      [
        "c1",
        "c3"
      ],
      [
        "c1",
        "c8"
      ],
      [
        "c1",
        "e3"
      ],
      [
        "c1",
        "a3"
      ],
      [
        "c1",
        "c8d7"
      ],
      [
        "e4",
        "e7"
      ],
      [
        "e4",
        "g3"
      ],
      [
        "b5",
        "c4"
      ],
      [
        "b5",
        "b6"
      ],
      [
        "f2",
        "g2"
      ],
      [
        "f2",
        "e3"
      ],
      [
        "f2",
        "g6"
      ],
      [
        "f2",
        "h1"
      ],
      [
        "d5",
        "e4"
      ],
      [
        "d5",
        "d4"
      ],
      [
        "d5",
        "b3"
      ],
      [
        "d5",
        "e4c3"
      ],
      [
        "f4",
        "g3"
      ],
      [
        "h6",
        "h7"
      ],
      [
        "d1",
        "h5"
      ],
      [
        "d1",
        "b3"
      ],
      [
        "d1",
        "d3"
      ],
      [
        "d1",
        "a4"
      ],
      [
        "d6",
        "e5"
      ],
      [
        "d6",
        "a6"
      ],
      [
        "d6",
        "g4"
      ],
      [
        "h4",
        "e7"
      ],
      [
        "h4",
        "g3"
      ],
      [
        "h4",
        "e2f1"
      ],
      [
        "a6",
        "a3"
      ],
      [
        "a6",
        "f6g4"
      ],
      [
        "g7",
        "h7"
      ],
      [
        "g7",
        "e2f3"
      ],
      [
        "b7",
        "c6"
      ],
      [
        "e6",
        "f6"
      ],
      [
        "e6",
        "d7"
      ],
      [
        "e8",
        "e1"
      ],
      [
        "f5",
        "d7e8"
      ],
      [
        "b1",
        "b5"
      ],
      [
        "b1",
        "a3"
      ],
      [
        "c5",
        "g1"
      ],
      [
        "c5",
        "d6"
      ],
      [
        "c5",
        "b6"
      ],
      [
        "e1",
        "e2"
      ],
      [
        "e1",
        "d2"
      ],
      [
        "e1",
        "f1"
      ],
      [
        "e1",
        "f2"
      ],
      [
        "g2",
        "f3"
      ],
      [
        "g2",
        "h6h5"
      ],
      [
        "c4",
        "c3"
      ],
      [
        "c4",
        "g8h8"
      ],
      [
        "h3",
        "h6"
      ],
      [
        "h3",
        "g3"
      ],
      [
        "c7",
        "d6"
      ],
      [
        "c7",
        "b6"
      ],
      [
        "g4",
        "f5"
      ],
      [
        "g4",
        "h3"
      ],
      [
        "g4",
        "g6"
      ],
      [
        "h5",
        "g6"
      ],
      [
        "h5",
        "h4d6"
      ],
      [
        "b8",
        "a8"
      ],
      [
        "g3",
        "h"
      ],
      [
        "d4",
        "c6c5"
      ],
      [
        "g5",
        "h6"
      ],
      [
        "a5",
        "c4"
      ],
      [
        "a5",
        "b2"
      ],
      [
        "b3",
        "c4"
      ],
      [
        "b3",
        "a4"
      ],
      [
        "b3",
        "b2"
      ],
      [
        "b3",
        "b4"
      ],
      [
        "d3",
        "d4"
      ],
      [
        "d3",
        "g6"
      ],
      [
        "b6",
        "b5"
      ],
      [
        "b6",
        "a6"
      ],
      [
        "b6",
        "a4"
      ],
      [
        "b6",
        "a5b2"
      ],
      [
        "c8",
        "c1"
      ],
      [
        "e3",
        "f4"
      ],
      [
        "d8",
        "d7"
      ],
      [
        "d8",
        "d6"
      ],
      [
        "a8",
        "d8"
      ],
      [
        "a8",
        "a7"
      ],
      [
        "b2",
        "b4c5"
      ],
      [
        "c2",
        "b3"
      ],
      [
        "g6",
        "g2"
      ],
      [
        "h7",
        "h5"
      ],
      [
        "a2",
        "d2"
      ],
      [
        "h1",
        "g1"
      ],
      [
        "h1",
        "f1"
      ],
      [
        "h1",
        "h3"
      ],
      [
        "h2",
        "g1"
      ],
      [
        "a1",
        "b1"
      ],
      [
        "h8",
        "g7"
      ],
      [
        "g1f3",
        "h7h6g5"
      ],
      [
        "b1c3",
        "d5e4c3"
      ],
      [
        "c7c6",
        "f4e5"
      ],
      [
        "c7c6",
        "d2d4d7d5"
      ],
      [
        "e1g1",
        "c6"
      ],
      [
        "e2e4",
        "c7c6d2d4d7d5"
      ],
      [
        "b7b5",
        "a2a4"
      ],
      [
        "h4d",
        "1"
      ],
      [
        "b2b3",
        "a6a5"
      ],
      [
        "a7a6",
        "b5"
      ],
      [
        "f8e7",
        "e2e3"
      ],
      [
        "b7b6",
        "b1c3"
      ],
      [
        "f4d",
        "6"
      ],
      [
        "f6e5",
        "f6"
      ],
      [
        "f6g7",
        "f6"
      ],
      [
        "c6b5",
        "c4b5"
      ],
      [
        "e2f3",
        "h8h7"
      ],
      [
        "c3d5",
        "e6d5"
      ],
      [
        "h6g7",
        "h6"
      ],
      [
        "g7g5",
        "g3"
      ],
      [
        "d4c5",
        "d4"
      ],
      [
        "g5g4",
        "f3"
      ],
      [
        "e4d3",
        "e4"
      ],
      [
        "d2d1",
        "c4"
      ],
      [
        "a4b5",
        "c6b5"
      ],
      [
        "d8a5",
        "c1d2"
      ],
      [
        "h2h1",
        "q"
      ],
      [
        "e2e4e7e5g1f3",
        "b8c6"
      ],
      [
        "b1c3d5e4c3",
        "e4"
      ],
      [
        "e2e4c7c6d2d4d7d5",
        "b1c3d5e4c3e4"
      ],
      [
        "4",
        "e5"
      ],
      [
        "4",
        "c3"
      ],
      [
        "6",
        "d4"
      ],
      [
        "8",
        "d2"
      ],
      [
        "a",
        "4d"
      ],
      [
        "a",
        "4d7"
      ],
      [
        "a",
        "4d5"
      ],
      [
        "a",
        "4d2"
      ],
      [
        "a",
        "4d1"
      ],
      [
        "b",
        "4d2"
      ],
      [
        "b",
        "4d1"
      ],
      [
        "c",
        "4d8"
      ],
      [
        "d",
        "4d3"
      ],
      [
        "d",
        "4d7"
      ],
      [
        "d",
        "4d5"
      ],
      [
        "d",
        "4d8"
      ],
      [
        "e",
        "4d8"
      ],
      [
        "g",
        "4d7"
      ],
      [
        "g",
        "4d2"
      ],
      [
        "g",
        "4d1"
      ],
      [
        "h",
        "4d2"
      ],
      [
        "n",
        "b8c6"
      ],
      [
        "q",
        "a8"
      ],
      [
        "q",
        "f8f7"
      ],
      [
        "r",
        "e1g1"
      ],
      [
        "f3",
        "c6"
      ],
      [
        "f3",
        "e2"
      ],
      [
        "f3",
        "b5"
      ],
      [
        "f3",
        "d5"
      ],
      [
        "f3",
        "h4"
      ],
      [
        "f3",
        "e1"
      ],
      [
        "f3",
        "g2"
      ],
      [
        "f3",
        "g4"
      ],
      [
        "f3",
        "d4"
      ],
      [
        "f3",
        "b3"
      ],
      [
        "f3",
        "a2"
      ],
      [
        "f3",
        "a1"
      ],
      [
        "f3",
        "b8c6"
      ],
      [
        "f3",
        "f4f3"
      ],
      [
        "f3",
        "d7d5"
      ],
      [
        "f3",
        "h4f5"
      ],
      [
        "f3",
        "e6e5"
      ],
      [
        "f3",
        "h4h6"
      ],
      [
        "f3",
        "e1e7"
      ],
      [
        "f3",
        "g2c3"
      ],
      [
        "f3",
        "g3g4"
      ],
      [
        "f3",
        "g4d"
      ],
      [
        "f3",
        "d7e5"
      ],
      [
        "f3",
        "d6e5"
      ],
      [
        "f3",
        "c7c6f4e5"
      ],
      [
        "f6",
        "c6"
      ],
      [
        "f6",
        "e7"
      ],
      [
        "f6",
        "d6"
      ],
      [
        "f6",
        "e6"
      ],
      [
        "f6",
        "h3"
      ],
      [
        "f6",
        "b2"
      ],
      [
        "f6",
        "h8"
      ],
      [
        "f6",
        "b1c3"
      ],
      [
        "f6",
        "e4e5"
      ],
      [
        "f6",
        "f8e8"
      ],
      [
        "f6",
        "e4d3"
      ],
      [
        "f6",
        "c1d2"
      ],
      [
        "f6",
        "e4c3"
      ],
      [
        "f6",
        "f8g7"
      ],
      [
        "f6",
        "e4d2"
      ],
      [
        "f6",
        "h7g8"
      ],
      [
        "f6",
        "g4d3"
      ],
      [
        "f6",
        "f1f4"
      ],
      [
        "f6",
        "a6a3"
      ],
      [
        "f6",
        "h1g1"
      ],
      [
        "f6",
        "f3a1"
      ],
      [
        "e5",
        "e2"
      ],
      [
        "e5",
        "f4"
      ],
      [
        "e5",
        "g7"
      ],
      [
        "e5",
        "f5"
      ],
      [
        "e5",
        "d4"
      ],
      [
        "e5",
        "a1"
      ],
      [
        "e5",
        "c7c6"
      ],
      [
        "e5",
        "f6g6"
      ],
      [
        "e5",
        "d8e8"
      ],
      [
        "e5",
        "d7b6"
      ],
      [
        "e5",
        "e1c1"
      ],
      [
        "e5",
        "d4e5"
      ],
      [
        "e5",
        "f3c1"
      ],
      [
        "e5",
        "e4d3e4"
      ],
      [
        "e5",
        "f3d7d5"
      ],
      [
        "g1",
        "h6"
      ],
      [
        "g1",
        "g7"
      ],
      [
        "g1",
        "f5"
      ],
      [
        "g1",
        "b1"
      ],
      [
        "g1",
        "e3"
      ],
      [
        "g1",
        "g8h8"
      ],
      [
        "g1",
        "h5h6"
      ],
      [
        "g1",
        "b2b1"
      ],
      [
        "g1",
        "h8h7"
      ],
      [
        "g1",
        "e2b8d7"
      ],
      [
        "c6",
        "e7"
      ],
      [
        "c6",
        "d7"
      ],
      [
        "c6",
        "c1"
      ],
      [
        "c6",
        "d5"
      ],
      [
        "c6",
        "h6"
      ],
      [
        "c6",
        "d6"
      ],
      [
        "c6",
        "b7"
      ],
      [
        "c6",
        "d4"
      ],
      [
        "c6",
        "a5"
      ],
      [
        "c6",
        "b4"
      ],
      [
        "c6",
        "g8f6"
      ],
      [
        "c6",
        "d2d4"
      ],
      [
        "c6",
        "b2b3"
      ],
      [
        "c6",
        "g1f2"
      ],
      [
        "c6",
        "f3h3"
      ],
      [
        "c6",
        "b4c2c3"
      ],
      [
        "c6",
        "c2d3"
      ],
      [
        "c6",
        "f3e4"
      ],
      [
        "c6",
        "a8d8"
      ],
      [
        "c6",
        "h1h3"
      ],
      [
        "c6",
        "f6e5f6"
      ],
      [
        "c6",
        "e4d3e4"
      ],
      [
        "c6",
        "f6c6"
      ],
      [
        "c6",
        "e5d4e5"
      ],
      [
        "e2",
        "e7"
      ],
      [
        "e2",
        "c3"
      ],
      [
        "e2",
        "c1"
      ],
      [
        "e2",
        "e8"
      ],
      [
        "e2",
        "h5"
      ],
      [
        "e2",
        "g3"
      ],
      [
        "e2",
        "b4"
      ],
      [
        "e2",
        "h7h6"
      ],
      [
        "e2",
        "a7a6"
      ],
      [
        "e2",
        "c7c5"
      ],
      [
        "e2",
        "c6c7"
      ],
      [
        "e2",
        "c1b1"
      ],
      [
        "e2",
        "e6e5"
      ],
      [
        "e2",
        "a6f6g4"
      ]
    ]
  }
}
