{
  "version": "1.0",
  "truncation": null,
  "padding": null,
  "added_tokens": [
    {
      "id": 0,
      "content": "<pad>",
      "single_word": false,
      "lstrip": false,
      "rstrip": false,
      "normalized": false,
      "special": true
    },
    {
      "id": 1,
      "content": "<bos>",
      "single_word": false,
      "lstrip": false,
      "rstrip": false,
      "normalized": false,
      "special": true
    },
    {
      "id": 2,
      "content": "<eos>",
      "single_word": false,
      "lstrip": false,
      "rstrip": false,
      "normalized": false,
      "special": true
    },
    {
      "id": 3,
      "content": "<mask>",
      "single_word": false,
      "lstrip": false,
      "rstrip": false,
      "normalized": false,
      "special": true
    },
    {
      "id": 4,
      "content": "<unk>",
      "single_word": false,
      "lstrip": false,
      "rstrip": false,
      "normalized": false,
      "special": true
    },
    {
      "id": 5,
      "content": "<1-0>",
      "single_word": false,
      "lstrip": false,
      "rstrip": false,
      "normalized": false,
      "special": true
    },
    {
      "id": 6,
      "content": "<0-1>",
      "single_word": false,
      "lstrip": false,
      "rstrip": false,
      "normalized": false,
      "special": true
    },
    {
      "id": 7,
      "content": "<1/2>",
      "single_word": false,
      "lstrip": false,
      "rstrip": false,
      "normalized": false,
      "special": true
    }
  ],
  "normalizer": null,
  "pre_tokenizer": {
    "type": "WhitespaceSplit"
  },
  "post_processor": null,
  "decoder": null,
  "model": {
    "type": "BPE",
    "dropout": null,
    "unk_token": "<unk>",
    "continuing_subword_prefix": null,
    "end_of_word_suffix": null,
    "fuse_unk": false,
    "byte_fallback": false,
    "ignore_merges": false,
    "vocab": {
      "<pad>": 0,
      "<bos>": 1,
      "<eos>": 2,
      "<mask>": 3,
      "<unk>": 4,
      "<1-0>": 5,
      "<0-1>": 6,
      "<1/2>": 7,
      "1": 8,
      "2": 9,
      "3": 10,
      "4": 11,
      "5": 12,
      "6": 13,
      "7": 14,
      "8": 15,
      "a": 16,
      "b": 17,
      "c": 18,
      "d": 19,
      "e": 20,
      "f": 21,
      "g": 22,
      "h": 23,
      "n": 24,
      "q": 25,
      "r": 26,
      "d4": 27,
      "f3": 28,
      "f6": 29,
      "e4": 30,
      "d5": 31,
      "e5": 32,
      "e7": 33,
      "d7": 34,
      "e2": 35,
      "c3": 36,
      "d2": 37,
      "c6": 38,
      "g8": 39,
      "c4": 40,
      "c5": 41,
      "g1": 42,
      "f4": 43,
      "e6": 44,
      "f8": 45,
      "f1": 46,
      "d6": 47,
      "f5": 48,
      "d3": 49,
      "e3": 50,
      "g5": 51,
      "e1": 52,
      "g4": 53,
      "d8": 54,
      "d1": 55,
      "e8": 56,
      "c8": 57,
      "c1": 58,
      "c7": 59,
      "g7": 60,
      "c2": 61,
      "g6": 62,
      "b5": 63,
      "g3": 64,
      "b4": 65,
      "f2": 66,
      "f7": 67,
      "b8": 68,
      "b1": 69,
      "g2": 70,
      "b7": 71,
      "b6": 72,
      "h5": 73,
      "b3": 74,
      "h4": 75,
      "b2": 76,
      "h6": 77,
      "a5": 78,
      "h2": 79,
      "a4": 80,
      "h7": 81,
      "h3": 82,
      "a6": 83,
      "a7": 84,
      "a3": 85,
      "a8": 86,
      "a2": 87,
      "a1": 88,
      "g1f3": 89,
      "g8f6": 90,
      "d2d4": 91,
      "e1g1": 92,
      "h8": 93,
      "e8g8": 94,
      "h1": 95,
      "e2e4": 96,
      "b1c3": 97,
      "b8c6": 98,
      "e7e6": 99,
      "d7d5": 100,
      "h2h3": 101,
      "g7g6": 102,
      "c7c5": 103,
      "d7d6": 104,
      "h7h6": 105,
      "c2c3": 106,
      "c7c6": 107,
      "a7a6": 108,
      "e7e5": 109,
      "f8e7": 110,
      "c2c4": 111,
      "c5d4": 112,
      "g2g3": 113,
      "f2f4": 114,
      "e4d5": 115,
      "a2a3": 116,
      "f3e5": 117,
      "b8d7": 118,
      "e2e3": 119,
      "f1e1": 120,
      "e4e5": 121,
      "f1d3": 122,
      "e5d4": 123,
      "f7f6": 124,
      "b7b5": 125,
      "f2f3": 126,
      "b7b6": 127,
      "f8g7": 128,
      "b2b3": 129,
      "f8e8": 130,
      "c4d5": 131,
      "c1e3": 132,
      "b1d2": 133,
      "f1e2": 134,
      "f6e4": 135,
      "d2d3": 136,
      "f7f5": 137,
      "e6d5": 138,
      "c1g5": 139,
      "f3d4": 140,
      "b2b4": 141,
      "c8g4": 142,
      "c8b7": 143,
      "a2a4": 144,
      "f1c4": 145,
      "d1d2": 146,
      "f6d5": 147,
      "g2g4": 148,
      "f4e5": 149,
      "a8c8": 150,
      "d4d5": 151,
      "c8d7": 152,
      "a7a5": 153,
      "h2h4": 154,
      "c1f4": 155,
      "g5f6": 156,
      "c3d5": 157,
      "a1c1": 158,
      "d6e5": 159,
      "d8c7": 160,
      "g5h4": 161,
      "a1d1": 162,
      "h7h5": 163,
      "f8d6": 164,
      "g4f3": 165,
      "g1h1": 166,
      "d8d7": 167,
      "d1e2": 168,
      "f4f5": 169,
      "c6d4": 170,
      "f1g2": 171,
      "e7f6": 172,
      "d2d4d7d5": 173,
      "g8g7": 174,
      "f5e4": 175,
      "e3d4": 176,
      "g8h8": 177,
      "c8e6": 178,
      "h4h5": 179,
      "b4c3": 180,
      "c4b3": 181,
      "c6d5": 182,
      "c3d4": 183,
      "a8d8": 184,
      "g7f6": 185,
      "d8e7": 186,
      "e6e5": 187,
      "c3e4": 188,
      "d6d5": 189,
      "c6e5": 190,
      "c8f5": 191,
      "e2e4e7e5": 192,
      "e1c1": 193,
      "g8e7": 194,
      "g4h5": 195,
      "b7c6": 196,
      "g5f4": 197,
      "g1f3b8c6": 198,
      "h3h4": 199,
      "c1d2": 200,
      "e2e4c7c5": 201,
      "g2f3": 202,
      "b2c3": 203,
      "c4d3": 204,
      "b5c6": 205,
      "d1c2": 206,
      "a8b8": 207,
      "a5a4": 208,
      "e5e4": 209,
      "d8b6": 210,
      "e2f3": 211,
      "c1b2": 212,
      "c4c5": 213,
      "c6c5": 214,
      "d5d4": 215,
      "f3g5": 216,
      "g1g2": 217,
      "f5f4": 218,
      "f7e6": 219,
      "h6h5": 220,
      "d3e4": 221,
      "f6d7": 222,
      "a4a5": 223,
      "f1d1": 224,
      "f8d8": 225,
      "g3g4": 226,
      "f5g6": 227,
      "h5h4": 228,
      "f8c5": 229,
      "a1b1": 230,
      "a6a5": 231,
      "e8c8": 232,
      "g1h2": 233,
      "e7d6": 234,
      "f2e3": 235,
      "g4g5": 236,
      "d3d4": 237,
      "b5b4": 238,
      "d1d3": 239,
      "g6g5": 240,
      "d8d5": 241,
      "f1b5": 242,
      "f8b4": 243,
      "d2d4g8f6": 244,
      "g1e2": 245,
      "f3f4": 246,
      "g8h7": 247,
      "e3e4": 248,
      "d7e5": 249,
      "d1e1": 250,
      "e5f6": 251,
      "a1e1": 252,
      "d1f3": 253,
      "e2d3": 254,
      "c3c4": 255,
      "d8e8": 256,
      "g1f2": 257,
      "c5b6": 258,
      "f6f5": 259,
      "h5g6": 260,
      "d5e4": 261,
      "g8f8": 262,
      "g8f7": 263,
      "f4g3": 264,
      "b6b5": 265,
      "d7d5e4d5": 266,
      "b3b4": 267,
      "f6g4": 268,
      "a8e8": 269,
      "d7c6": 270,
      "e6f5": 271,
      "g7g5": 272,
      "d4e5": 273,
      "b4b5": 274,
      "g1f1": 275,
      "d2f3": 276,
      "c3e2": 277,
      "a3a4": 278,
      "d1b3": 279,
      "f3e4": 280,
      "g5g4": 281,
      "h7g6": 282,
      "f7g6": 283,
      "d1d4": 284,
      "g7h6": 285,
      "d2e4": 286,
      "d8f6": 287,
      "e1g1e8g8": 288,
      "d6c7": 289,
      "e8e7": 290,
      "g8f6b1c3": 291,
      "e3f4": 292,
      "d2d4c5d4": 293,
      "d3c2": 294,
      "f8f7": 295,
      "f6h5": 296,
      "d7c5": 297,
      "c1b1": 298,
      "d8d6": 299,
      "f6e5": 300,
      "f1f2": 301,
      "e1e2": 302,
      "c4b5": 303,
      "h2g3": 304,
      "g4f5": 305,
      "d6c5": 306,
      "c6e7": 307,
      "e8g8e1g1": 308,
      "d7f6": 309,
      "d7b6": 310,
      "f2g3": 311,
      "a6b5": 312,
      "c5c4": 313,
      "d8c8": 314,
      "e5d4e5": 315,
      "e7f5": 316,
      "e7g6": 317,
      "e2g3": 318,
      "d2c3": 319,
      "c8b8": 320,
      "g5h6": 321,
      "h8g8": 322,
      "d4c5": 323,
      "a3b4": 324,
      "d2e3": 325,
      "e5e6": 326,
      "h5h6": 327,
      "f3h4": 328,
      "g2h3": 329,
      "d1c1": 330,
      "h1g1": 331,
      "c3b5": 332,
      "b1c3g8f6": 333,
      "h4g3": 334,
      "c6a5": 335,
      "g1f3g8f6": 336,
      "f8c8": 337,
      "d5c4": 338,
      "g1f3d7d6": 339,
      "d8a5": 340,
      "e2e4e7e6": 341,
      "b3c2": 342,
      "d3e2": 343,
      "e5f4": 344,
      "d6e7": 345,
      "a4a3": 346,
      "e2e4e7e5g1f3b8c6": 347,
      "c5b4": 348,
      "g4h3": 349,
      "g5g6": 350,
      "e4f3": 351,
      "d7e6": 352,
      "f5f6": 353,
      "e4e3": 354,
      "d2c4": 355,
      "b6c7": 356,
      "a5a6": 357,
      "b5a4": 358,
      "c6b4": 359,
      "c6b7c6": 360,
      "a5b4": 361,
      "e8f8": 362,
      "f3g3": 363,
      "g4g3": 364,
      "f4e3": 365,
      "c8c7": 366,
      "f5e6": 367,
      "h4h3": 368,
      "e2f4": 369,
      "f3d2": 370,
      "a1f1": 371,
      "e2e4c7c6": 372,
      "c1c2": 373,
      "d5d6": 374,
      "d4d3": 375,
      "e1f1": 376,
      "g1f3e7e6": 377,
      "f4f3": 378,
      "d2b3": 379,
      "d7c7": 380,
      "c4c3": 381,
      "e4d5e4": 382,
      "h7h6g5": 383,
      "a8f8": 384,
      "e4f6": 385,
      "f1c1": 386,
      "e8d8": 387,
      "e4f5": 388,
      "e1d1": 389,
      "d4c3": 390,
      "a2b3": 391,
      "e2d2": 392,
      "a4b3": 393,
      "h6g7": 394,
      "e7d7": 395,
      "e7c5": 396,
      "e5d6": 397,
      "h1h2": 398,
      "c3a4": 399,
      "d2d4e5d4": 400,
      "a5b6": 401,
      "d2d4c5d4f3d4": 402,
      "d3d2": 403,
      "b5b6": 404,
      "d1d5": 405,
      "b4b3": 406,
      "d3c4": 407,
      "e3d2": 408,
      "c2b3": 409,
      "g3f4": 410,
      "f6g6": 411,
      "f7e7": 412,
      "e1e3": 413,
      "a4b5": 414,
      "f8g8": 415,
      "c6c7": 416,
      "d6d7": 417,
      "e8f7": 418,
      "e8d7": 419,
      "e2d4": 420,
      "h7h8": 421,
      "c5c6": 422,
      "c7b6": 423,
      "h7h6g5h4": 424,
      "b7a6": 425,
      "e7g5": 426,
      "a6a7": 427,
      "d8d4": 428,
      "e7d5": 429,
      "f1f3": 430,
      "e5f3": 431,
      "f4g5": 432,
      "a2a3b4": 433,
      "a3a2": 434,
      "g3h4": 435,
      "f2e2": 436,
      "f1g1": 437,
      "c5d6": 438,
      "c2c4e7e6": 439,
      "g6h5": 440,
      "g6f5": 441,
      "e3f2": 442,
      "d2c2": 443,
      "c3c2": 444,
      "e6f7e6": 445,
      "e3e2": 446,
      "h2h3g4h5": 447,
      "b2a3": 448,
      "f6e7": 449,
      "d1h5": 450,
      "a7b6": 451,
      "f3e2": 452,
      "b4c3b2c3": 453,
      "h8h7": 454,
      "g7f8": 455,
      "e6e7": 456,
      "h6h7": 457,
      "h6g5": 458,
      "f6g5": 459,
      "h2h3g4": 460,
      "c8a6": 461,
      "f7g7": 462,
      "g1f3d7d5": 463,
      "h2h1": 464,
      "e3d3": 465,
      "f3e3": 466,
      "e2c4": 467,
      "b6b7": 468,
      "e6d7": 469,
      "c3b2c3": 470,
      "c5d4c3d4": 471,
      "d1a4": 472,
      "f5g4": 473,
      "e4d3": 474,
      "f3g4": 475,
      "b4c5": 476,
      "b7d5": 477,
      "e7f8": 478,
      "a7a6b5": 479,
      "e1d2": 480,
      "e4d6": 481,
      "c4d5e6d5": 482,
      "f5d3": 483,
      "b8c6g1f3": 484,
      "a8a7": 485,
      "f6f7": 486,
      "f3f2": 487,
      "e6f7": 488,
      "f6e6": 489,
      "e1f2": 490,
      "f6g7": 491,
      "e1e4": 492,
      "c2d3": 493,
      "d4e3": 494,
      "b3b2": 495,
      "d8h4": 496,
      "d2e2": 497,
      "d8d1": 498,
      "h8g7": 499,
      "e8e6": 500,
      "e2e4d7d6": 501,
      "e5d3": 502,
      "e3c5": 503,
      "g6g7": 504,
      "h3h2": 505,
      "g2f2": 506,
      "b5c4": 507,
      "f4d6": 508,
      "b7b8": 509,
      "h3g4": 510,
      "b5c6b7c6": 511,
      "e2g4": 512,
      "d7f8": 513,
      "g7g8": 514,
      "g3g2": 515,
      "e5g6": 516,
      "e3g5": 517,
      "e5c4": 518,
      "d1g4": 519,
      "d2d4e7e6": 520,
      "e2e4d7d5e4d5": 521,
      "e6d6": 522,
      "f8f6": 523,
      "d7e7": 524,
      "c1d1": 525,
      "b2b1": 526,
      "g3f2": 527,
      "d5e6": 528,
      "d5c6": 529,
      "e2f2": 530,
      "e1e5": 531,
      "e4c5": 532,
      "e7f7": 533,
      "c8d8": 534,
      "c7b7": 535,
      "c7c5c2c3": 536,
      "g2g1": 537,
      "d2f1": 538,
      "d1d6": 539,
      "e4g3": 540,
      "g5e7": 541,
      "a1a2": 542,
      "g7e5": 543,
      "g6f7": 544,
      "e3f2e3": 545,
      "h2g1": 546,
      "d3f5": 547,
      "h1e1": 548,
      "e1g1f8e7": 549,
      "h7g8": 550,
      "d3c3": 551,
      "b8a6": 552,
      "c7d7": 553,
      "b3a4": 554,
      "d8g5": 555,
      "e8e5": 556,
      "d1d7": 557,
      "f6e8": 558,
      "e3f3": 559,
      "h1g2": 560,
      "d4f5": 561,
      "d2f4": 562,
      "g3f3": 563,
      "g2f1": 564,
      "d4f3": 565,
      "h8e8": 566,
      "e4g5": 567,
      "b6d5": 568,
      "d3g6": 569,
      "h7g7": 570,
      "c2d2": 571,
      "c2b2": 572,
      "d3b5": 573,
      "c6b5": 574,
      "e5d7": 575,
      "c7d6": 576,
      "b5b4c3": 577,
      "d3e3": 578,
      "f8b8": 579,
      "g7f7": 580,
      "a7a8": 581,
      "d6f4": 582,
      "h3g2": 583,
      "e7h4": 584,
      "e2e4c7c5g1f3b8c6": 585,
      "e5g4": 586,
      "d8d2": 587,
      "d5f4": 588,
      "g8f6d2d3": 589,
      "d6c7d6": 590,
      "f3h2": 591,
      "d1d8": 592,
      "h2h3g4f3": 593,
      "a2a1": 594,
      "b1b2": 595,
      "e2e4e7e6d2d4d7d5": 596,
      "c2c4c7c6": 597,
      "c1g5f8e7": 598,
      "c4d5c6d5": 599,
      "b1a3": 600,
      "d7e8": 601,
      "h2g2": 602,
      "h5f4": 603,
      "f7f8": 604,
      "h8f8": 605,
      "b6a5": 606,
      "b8c8": 607,
      "f2g2": 608,
      "h5g4": 609,
      "d6c6": 610,
      "g6f6": 611,
      "c6c5d4": 612,
      "g3f5": 613,
      "c7c8": 614,
      "c3b4": 615,
      "d7b5": 616,
      "c1a3": 617,
      "g3h3": 618,
      "c5d4e3d4": 619,
      "f6g7f6": 620,
      "f1b1": 621,
      "b1c3e7e6": 622,
      "c8c2": 623,
      "e4d4": 624,
      "b8a8": 625,
      "c5c4d3": 626,
      "b6c4": 627,
      "e6f6": 628,
      "e5c6": 629,
      "e7e5d4e5": 630,
      "d1f1": 631,
      "d8f8": 632,
      "e2e4c7c6d2d4d7d5": 633,
      "e7b4": 634,
      "e2f1": 635,
      "b1c1": 636,
      "b8b7": 637,
      "b1c3b8c6": 638,
      "b7c8": 639,
      "b3d5": 640,
      "d6e6": 641,
      "e3h6": 642,
      "f5g6f5": 643,
      "e7d8": 644,
      "c2c1": 645,
      "g8h6": 646,
      "b7e4": 647,
      "a5c4": 648,
      "b1a1": 649,
      "c1c7": 650,
      "e2h5": 651,
      "g6h6": 652,
      "f3g2": 653,
      "g6f4": 654,
      "e4e5f6d5": 655,
      "e2e4e7e5g1f3b8c6f1c4": 656,
      "c6d7": 657,
      "e5d5": 658,
      "h4g5": 659,
      "e2e4c7c5g1f3d7d6": 660,
      "b4a5": 661,
      "e7e8": 662,
      "f2f1": 663,
      "e1g1g8f6": 664,
      "b6d4": 665,
      "e1e8": 666,
      "g1f3c8g4": 667,
      "g4h4": 668,
      "g7d4": 669,
      "c5e4": 670,
      "f3g2f3": 671,
      "g5e3": 672,
      "d7f5": 673,
      "b6c5": 674,
      "h1f1": 675,
      "d3c2d3": 676,
      "e1e7": 677,
      "c8c6": 678,
      "b1c3d5": 679,
      "f6h7": 680,
      "e8e4": 681,
      "d8b8": 682,
      "b2d4": 683,
      "f4g4": 684,
      "c3c4d5": 685,
      "g5f6e7f6": 686,
      "c2e4": 687,
      "a5c7": 688,
      "b6c6": 689,
      "c3b3": 690,
      "c4b3c4": 691,
      "e7c6": 692,
      "g4g5f6": 693,
      "b7a7": 694,
      "c8c4": 695,
      "d7d5e4e5": 696,
      "h1d1": 697,
      "b2a2": 698,
      "d8d3": 699,
      "g7g6b1c3": 700,
      "g5h5": 701,
      "f7e8": 702,
      "f6d4": 703,
      "h3g3": 704,
      "e6e5d4": 705,
      "f8f5": 706,
      "c4e2": 707,
      "e2b5": 708,
      "g7h7": 709,
      "g7g5h4": 710,
      "d2b4": 711,
      "g5f5": 712,
      "f1f4": 713,
      "d2d4d7d6": 714,
      "c1c3": 715,
      "a4c5": 716,
      "d1b1": 717,
      "d6g3": 718,
      "d4c6": 719,
      "c5d3": 720,
      "d7d8": 721,
      "g4e6": 722,
      "g4e2": 723,
      "c7e5": 724,
      "d4b5": 725,
      "g5e6": 726,
      "h8d8": 727,
      "c4e3": 728,
      "f4e4": 729,
      "g5f6g7f6": 730,
      "b3c5": 731,
      "d2d1": 732,
      "g4h3g4": 733,
      "g5h6g5": 734,
      "c4d6": 735,
      "f7g8": 736,
      "e4d5e6d5": 737,
      "g1f3f8g7": 738,
      "b6a6": 739,
      "e4e5d6e5": 740,
      "c4d3c4": 741,
      "c3d3": 742,
      "c2c3g8f6": 743,
      "d5e3": 744,
      "d2g5": 745,
      "e1e6": 746,
      "f5e5": 747,
      "c4e5": 748,
      "e2e1": 749,
      "f3d5": 750,
      "a7a6a2a4": 751,
      "d4e6": 752,
      "h5g3": 753,
      "h6g6": 754,
      "c3d2": 755,
      "d4b3": 756,
      "g2h2": 757,
      "d7c8": 758,
      "d2d4g8f6c2c4": 759,
      "e8g8f1d3": 760,
      "g4f4": 761,
      "c5e6": 762,
      "e4c3": 763,
      "e8e2": 764,
      "c7e7": 765,
      "b8d7e1g1": 766,
      "h4f5": 767,
      "b3c4": 768,
      "g4e3": 769,
      "c5b6c5": 770,
      "b7c7": 771,
      "e8e1": 772,
      "c2e2": 773,
      "g6h7": 774,
      "g2g4f5": 775,
      "b1c3d7d6": 776,
      "e4f4": 777,
      "d2e1": 778,
      "f1c4e7e6": 779,
      "c2b1": 780,
      "d2c1": 781,
      "c5d5": 782,
      "c4d5f6d5": 783,
      "e2c3": 784,
      "c5d4f3d4": 785,
      "e2e4d7d5e4d5d8d5": 786,
      "b8c6e1g1": 787,
      "c8c1": 788,
      "c6b6": 789,
      "c6d6": 790,
      "b5d7": 791,
      "b3a3": 792,
      "b2c2": 793,
      "d5f6": 794,
      "c1h6": 795,
      "f5e4f5": 796,
      "g1f3g7g6": 797,
      "g7g5f4": 798,
      "c7b8": 799,
      "c4a2": 800,
      "e5f5": 801,
      "f2e1": 802,
      "d4c6b7c6": 803,
      "h5g5": 804,
      "d6b4": 805,
      "g8f6e1g1": 806,
      "f8e7e1g1e8g8": 807,
      "d1g1": 808,
      "f3e1": 809,
      "d3b1": 810,
      "c3b2": 811,
      "e6c4": 812,
      "e2e3g8f6": 813,
      "a4c2": 814,
      "g3e5": 815,
      "d2d4c7c6": 816,
      "d4c4": 817,
      "h5f6": 818,
      "g2e4": 819,
      "g7g6g1f3f8g7": 820,
      "c5e7": 821,
      "a6b7": 822,
      "d4e2": 823,
      "b1c3c7c6": 824,
      "b8b2": 825,
      "c7c5d4d5": 826,
      "d5b6": 827,
      "a4b5a6b5": 828,
      "g7g6b1c3f8g7": 829,
      "g3e4": 830,
      "h4g4": 831,
      "c6e5f3e5": 832,
      "e2d1": 833,
      "d5e7": 834,
      "c6b7": 835,
      "b3c3": 836,
      "f1b5c8d7": 837,
      "c6d4f3d4": 838,
      "c4f7": 839,
      "b1c3f8b4": 840,
      "e4d5c6d5": 841,
      "f5g5": 842,
      "d7d5e4d5e6d5": 843,
      "f2f4e5f4": 844,
      "d5e5": 845,
      "g3h2": 846,
      "g7h8": 847,
      "h4g6": 848,
      "b8c6c2c3": 849,
      "b2c1": 850,
      "a8a6": 851,
      "c3d5f6d5": 852,
      "c2c4g8f6b1c3": 853,
      "f2g1": 854,
      "e2e3e7e6": 855,
      "e1g1b8d7": 856,
      "d4e4": 857,
      "c4b4": 858,
      "c8c3": 859,
      "a5b4a3b4": 860,
      "c7d8": 861,
      "g6e5": 862,
      "e4d2": 863,
      "b5d6": 864,
      "f1e1e8g8": 865,
      "c8c5": 866,
      "d5c5": 867,
      "b1c3e8g8": 868,
      "b2e5": 869,
      "d2f2": 870,
      "b4b5c6": 871,
      "b1d2e8g8": 872,
      "f4e5f4": 873,
      "a7a6b5a4": 874,
      "f8h8": 875,
      "g4e5": 876,
      "g5h4g5": 877,
      "c4e6": 878,
      "b1b7": 879,
      "f5d4": 880,
      "c8e8": 881,
      "g7g8g7": 882,
      "b3d4": 883,
      "g6e4": 884,
      "b1c3d7d5": 885,
      "h4e7": 886,
      "g2d5": 887,
      "d7g4": 888,
      "e2e4e7e5g1f3b8c6f1b5": 889,
      "f4d3": 890,
      "d6e5d4e5": 891,
      "c5b5": 892,
      "c1e1": 893,
      "g1f3c7c5": 894,
      "h5f3": 895,
      "e3g3": 896,
      "b1c3a7a6": 897,
      "c1c8": 898,
      "d8g8": 899,
      "a1a3": 900,
      "c4d4": 901,
      "b3a2b3": 902,
      "e3b6": 903,
      "d2d4e5d4f3d4": 904,
      "d2h6": 905,
      "d5e4c3e4": 906,
      "f1f5": 907,
      "f4d5": 908,
      "g5g4f3": 909,
      "a3b2": 910,
      "e6g4": 911,
      "g4f3g2f3": 912,
      "b5d3": 913,
      "c5e3": 914,
      "b6b2": 915,
      "f1g3": 916,
      "h4f6": 917,
      "a1a7": 918,
      "d5b4": 919,
      "f4h6": 920,
      "g5e4": 921,
      "a8a2": 922,
      "b1a2": 923,
      "f4e6": 924,
      "f3h3": 925,
      "e7e5d4d5": 926,
      "a5b5": 927,
      "e8g8b1d2": 928,
      "g1f3c7c6": 929,
      "f5e3": 930,
      "h2g4": 931,
      "c1c5": 932,
      "a4b4": 933,
      "b7b5c4b3": 934,
      "b1c2": 935,
      "f5d6": 936,
      "e2e4g7g6": 937,
      "b7a8": 938,
      "f1f7": 939,
      "d2d4c5d4f3d4g8f6b1c3": 940,
      "b8a7": 941,
      "d5c3": 942,
      "e2c2": 943,
      "h6f5": 944,
      "c8g4f1e2": 945,
      "c3d5e6d5": 946,
      "f8f4": 947,
      "g6g5h4": 948,
      "e5f7": 949,
      "g5f7": 950,
      "b8d8": 951,
      "e8e3": 952,
      "b6d7": 953,
      "a8g8": 954,
      "h2h3e8g8": 955,
      "g6g5f4": 956,
      "b4a3": 957,
      "d2d4c5d4c3d4": 958,
      "c1c6": 959,
      "g3h5": 960,
      "f3e5c6e5": 961,
      "c3d1": 962,
      "c2d1": 963,
      "e1g1b8c6": 964,
      "b4d3": 965,
      "e6e5d4e5": 966,
      "g4h5g4": 967,
      "h4f3": 968,
      "e7c7": 969,
      "b4d2": 970,
      "f6e4d3e4": 971,
      "a1g1": 972,
      "d2d4f8g7": 973,
      "b8e8": 974,
      "f7f5e4f5": 975,
      "d4d5e6d5": 976,
      "b5b4a3b4": 977,
      "d7d5e4d5c6d5": 978,
      "c5d7": 979,
      "a6c7": 980,
      "a7b7": 981,
      "c6e4": 982,
      "c1g5h7h6g5h4": 983,
      "c6d8": 984,
      "g1h3": 985,
      "e2e4c7c5g1f3e7e6": 986,
      "e3f5": 987,
      "f3h5": 988,
      "e8g8f1e2": 989,
      "a2b2": 990,
      "b4a4": 991,
      "g2g4h5g6": 992,
      "f8a8": 993,
      "f8g6": 994,
      "c1c4": 995,
      "a2b1": 996,
      "c7c5d4c5": 997,
      "e3e4d5e4": 998,
      "f4g3f4": 999,
      "d3h7": 1000,
      "c2f5": 1001,
      "d7f7": 1002,
      "c5f2": 1003,
      "a5c6": 1004,
      "b8b6": 1005,
      "d2d4d7d5c1f4": 1006,
      "h2h4h7h5": 1007,
      "c8h3": 1008,
      "c5d4c5": 1009,
      "c2c4d7d5": 1010,
      "d2b2": 1011,
      "f5d3d1d3": 1012,
      "c7a5": 1013,
      "e1b1": 1014,
      "c8a8": 1015,
      "g2h1": 1016,
      "d7b7": 1017,
      "b5a6": 1018,
      "d8a8": 1019,
      "e3d5": 1020,
      "d3f3": 1021,
      "e4e5f6d7": 1022,
      "f1h1": 1023,
      "b4d6": 1024,
      "d2d4g8f6c2c4e7e6": 1025,
      "c5a7": 1026,
      "f8f2": 1027,
      "f7f6e5f6": 1028,
      "b1d1": 1029,
      "g7g5h4g3": 1030,
      "d2d3g8f6": 1031,
      "g2g3g8f6": 1032,
      "b8c7": 1033,
      "b3b7": 1034,
      "e5g3": 1035,
      "c2c4d5c4": 1036,
      "g4f6": 1037,
      "c5c4b3": 1038,
      "c6d4e3d4": 1039,
      "f8h6": 1040,
      "b6b4": 1041,
      "d5c7": 1042,
      "d3a6": 1043,
      "a3c2": 1044,
      "d2d4d7d5c2c4e7e6": 1045,
      "d6f5": 1046,
      "h5e2": 1047,
      "c4d5c4": 1048,
      "c8g4h2h3g4h5": 1049,
      "c2a4": 1050,
      "e4f2": 1051,
      "b5a5": 1052,
      "d2d4g7g6": 1053,
      "f6e4c3e4": 1054,
      "a3b3": 1055,
      "g5f3": 1056,
      "d7a4": 1057,
      "b1c3g7g6": 1058,
      "b6a7": 1059,
      "f4d2": 1060,
      "b6d8": 1061,
      "c2c4e7e5": 1062,
      "d1a1": 1063,
      "e6d4": 1064,
      "g3e2": 1065,
      "e8g8h2h3": 1066,
      "e1g1g8e7": 1067,
      "b3a2": 1068,
      "f1f6": 1069,
      "f4e5d6e5": 1070,
      "f4g6": 1071,
      "e7e6g1f3": 1072,
      "e1g1e7e6": 1073,
      "h6g7g8g7": 1074,
      "f1a1": 1075,
      "b5c6d7c6": 1076,
      "f6h4": 1077,
      "f8b4c1d2": 1078,
      "h7g5": 1079,
      "f5e7": 1080,
      "b5c6b5": 1081,
      "d5e4d3e4": 1082,
      "a6b6": 1083,
      "h2h3g4f3d1f3": 1084,
      "d4c2": 1085,
      "d8e8d8": 1086,
      "c7a7": 1087,
      "b7f3": 1088,
      "c7f4": 1089,
      "c2c3d4c3": 1090,
      "e4g6": 1091,
      "a3c4": 1092,
      "a4b6": 1093,
      "b1b3": 1094,
      "a6c5": 1095,
      "f8e6": 1096,
      "e1g1f8d6": 1097,
      "d2d5": 1098,
      "g2g1g2": 1099,
      "c1a1": 1100,
      "b4e7": 1101,
      "b4c4": 1102,
      "e1g3": 1103,
      "d2d4b8c6": 1104,
      "g6e7": 1105,
      "c8f8": 1106,
      "g8f6g1f3": 1107,
      "g2g3g8f6f1g2": 1108,
      "g4f2": 1109,
      "d1e1d1": 1110,
      "e6h3": 1111,
      "f7f5e4": 1112,
      "a2a1q": 1113,
      "b7b5a2a3": 1114,
      "d7h3": 1115,
      "b2a1": 1116,
      "g3g4h5": 1117,
      "b1e1": 1118,
      "e6g6": 1119,
      "g4f3e2f3": 1120,
      "b5c7": 1121,
      "e6f4": 1122,
      "e2e5": 1123,
      "d1h1": 1124,
      "d4d2": 1125,
      "d7e5d4e5": 1126,
      "a8a5": 1127,
      "g8f6e2e3": 1128,
      "d3f4": 1129,
      "d6e4": 1130,
      "c2c3b8c6": 1131,
      "g4f3g4": 1132,
      "f4f5e6f5": 1133,
      "a7a8q": 1134,
      "b4b5a6b5": 1135,
      "b5c5": 1136,
      "a1a4": 1137,
      "e2e4d7d5e4d5d8d5b1c3d5": 1138,
      "f1e3": 1139,
      "e1g1d7d6": 1140,
      "c2a2": 1141,
      "h8h6": 1142,
      "e5f6e5": 1143,
      "e3a7": 1144,
      "d7e5f3e5": 1145,
      "b4c3b4": 1146,
      "g5d2": 1147,
      "a8h8": 1148,
      "f4e2": 1149,
      "h1h3": 1150,
      "c1g5e8g8": 1151,
      "c6b8": 1152,
      "f1h3": 1153,
      "c4b5c4": 1154,
      "d8h8": 1155,
      "c4b6": 1156,
      "f5h6": 1157,
      "d2d4g8f6c1f4": 1158,
      "a1a6": 1159,
      "g4g5h6": 1160,
      "a8a3": 1161,
      "h5g6h7g6": 1162,
      "c2f2": 1163,
      "c3e5": 1164,
      "a5c5": 1165,
      "f5g3": 1166,
      "c2g6": 1167,
      "e2e3d7d5": 1168,
      "e1g1f8g7": 1169,
      "f4c7": 1170,
      "e2e4e7e5g1f3d7d6": 1171,
      "a7b8": 1172,
      "c7f7": 1173,
      "g2g3d7d5": 1174,
      "f4h3": 1175,
      "e2e4g8f6": 1176,
      "g6h4": 1177,
      "c4d2": 1178,
      "g6d3": 1179,
      "a4c3": 1180,
      "f5d7": 1181,
      "h5f7": 1182,
      "f2f4e5": 1183,
      "g5f6g5": 1184,
      "a1h1": 1185,
      "f6h6": 1186,
      "c2e3": 1187,
      "h4f2": 1188,
      "e8b8": 1189,
      "a7a5a2a3": 1190,
      "a5c3": 1191,
      "c6d4d1d4": 1192,
      "e2e4e7e5f1c4": 1193,
      "c1f1": 1194,
      "h8c8": 1195,
      "e8g6": 1196,
      "f3f5": 1197,
      "f6b2": 1198,
      "f1e2e8g8e1g1": 1199,
      "b3d2": 1200,
      "d2d4d7d5c2c4c7c6": 1201,
      "f3f4e5": 1202,
      "g5f6d8f6": 1203,
      "d3g3": 1204,
      "a6c4": 1205,
      "d6b6": 1206,
      "f6f4": 1207,
      "f1d3g8f6": 1208,
      "d3b3": 1209,
      "b8b4": 1210,
      "d3e5": 1211,
      "f8g8f8": 1212,
      "e7a3": 1213,
      "e2e4c7c5g1f3d7d6d2d4c5d4f3d4g8f6b1c3": 1214,
      "b8c6a2a3": 1215,
      "f5c2": 1216,
      "b4d5": 1217,
      "b5d4": 1218,
      "g4d7": 1219,
      "g1f3b8d7": 1220,
      "a7a5a2a4": 1221,
      "f4h2": 1222,
      "d4e5d6e5": 1223,
      "d6f6": 1224,
      "d3c5": 1225,
      "c7e6": 1226,
      "e7e4": 1227,
      "e2e4c7c5g1f3b8c6d2d4c5d4f3d4": 1228,
      "e2e4e7e5g1f3b8c6f1c4f8c5": 1229,
      "e3e4d5": 1230,
      "b3e6": 1231,
      "a2a4a7a6": 1232,
      "f4h5": 1233,
      "b7b5a4b3": 1234,
      "d2a5": 1235,
      "c2c3d7d6": 1236,
      "d6e5f4e5": 1237,
      "f7f6e5": 1238,
      "f8f1": 1239,
      "d4b6": 1240,
      "c7d5": 1241,
      "d6b8": 1242,
      "d7e5f4e5": 1243,
      "g5f4g5": 1244,
      "f1d3e8g8e1g1": 1245,
      "f3b7": 1246,
      "g5e7d8e7": 1247,
      "d3d5": 1248,
      "d4d1": 1249,
      "c2c3e7e6": 1250,
      "f5h4": 1251,
      "h7h6g5f3": 1252,
      "h3f4": 1253,
      "e3g4": 1254,
      "c2c4g8f6": 1255,
      "f6d5c3d5": 1256,
      "f5h3": 1257,
      "e2a6": 1258,
      "h8h5": 1259,
      "f8f3": 1260,
      "h2h3h7h6": 1261,
      "h2h4h7h6": 1262,
      "a4c6": 1263,
      "f6g8": 1264,
      "d6c4": 1265,
      "d4f2": 1266,
      "c1e3g8f6": 1267,
      "a7a6a2a3": 1268,
      "g3d6": 1269,
      "b7b8q": 1270,
      "b5e2": 1271,
      "c7c6d5": 1272,
      "a8a4": 1273,
      "b5c3": 1274,
      "g8g6": 1275,
      "e8d6": 1276,
      "g1f3g8f6b1c3": 1277,
      "h7h8q": 1278,
      "g7b2": 1279,
      "d7f6e4": 1280,
      "c4e6f7e6": 1281,
      "b6e3": 1282,
      "d4f6": 1283,
      "h6f4": 1284,
      "f3d3": 1285,
      "f6d7f6": 1286,
      "c7c5e2e3": 1287,
      "d2d4e5d4c3d4": 1288,
      "f1d3f5d3d1d3": 1289,
      "h5g6f7g6": 1290,
      "h1c1": 1291,
      "e5d4c3d4": 1292,
      "c4d5d8d5": 1293,
      "c7c4": 1294,
      "g2g3g7g6": 1295,
      "f1d3e8g8": 1296,
      "c8g4f2f3": 1297,
      "d5d7": 1298,
      "b4c2": 1299,
      "a5a2": 1300,
      "e3e5": 1301,
      "a4c4": 1302,
      "b2b1q": 1303,
      "a5b3": 1304,
      "b8b5": 1305,
      "e2e6": 1306,
      "b1c3d5e4c3e4": 1307,
      "h6f7": 1308,
      "f2f4d7d6": 1309,
      "d6d5e4d5": 1310,
      "c7c5c2c3b8c6": 1311,
      "b1b4": 1312,
      "e7b7": 1313,
      "e1g1h7h6": 1314,
      "c2c3e8g8": 1315,
      "a6b4": 1316,
      "c3a3": 1317,
      "h5h3": 1318,
      "a1a5": 1319,
      "f3c6": 1320,
      "f4h4": 1321,
      "b6d6": 1322,
      "e1a1": 1323,
      "e2b2": 1324,
      "g5g4h3": 1325,
      "d6h2": 1326,
      "f4d6d8d6": 1327,
      "d6e5d4": 1328,
      "c1e3e8g8": 1329,
      "h6e3": 1330,
      "d5c3b2c3": 1331,
      "c7g3": 1332,
      "c6a7": 1333,
      "d7d4": 1334,
      "a3c5": 1335,
      "c1g5h7h6": 1336,
      "c5b4c5": 1337,
      "b1c3f8e7": 1338,
      "g1f3f8e7": 1339,
      "e4g4": 1340,
      "a2a4a7a5": 1341,
      "b3b5": 1342,
      "b2f6": 1343,
      "e3c4": 1344,
      "g1g3": 1345,
      "f2d4": 1346,
      "e1h1": 1347,
      "b3d1": 1348,
      "a1c1a8c8": 1349,
      "e1g1c8b7": 1350,
      "d6d4": 1351,
      "e8a8": 1352,
      "e2e4c7c6d2d4d7d5e4e5": 1353,
      "e7e5d4e5d6e5": 1354,
      "d3f1": 1355,
      "c3e4f6e4": 1356,
      "a5a3": 1357,
      "c2c4f8g7": 1358,
      "e3c1": 1359,
      "e8f6": 1360,
      "e6c5": 1361,
      "b4c6": 1362,
      "d3e4d5e4": 1363,
      "e7e6e2e3": 1364,
      "f1e1f8e8": 1365,
      "a8c8a1c1": 1366,
      "a6d3": 1367,
      "e4e2": 1368,
      "g7c3": 1369,
      "g5g3": 1370,
      "b5b7": 1371,
      "h4f4": 1372,
      "f1c4g8f6": 1373,
      "a2a3b4a5": 1374,
      "a8a1": 1375,
      "e5d4e3d4": 1376,
      "c5b3": 1377,
      "c2d4": 1378,
      "a2a3a7a5": 1379,
      "c5c7": 1380,
      "c5d4d1d4": 1381,
      "e7c8": 1382,
      "e6a2": 1383,
      "c6a6": 1384,
      "h7h6g5e3": 1385,
      "d7a7": 1386,
      "f5h5": 1387,
      "h4h6": 1388,
      "e4c2": 1389,
      "e4e5d6e5f4e5": 1390,
      "d6d8": 1391,
      "c6c5d4c5": 1392,
      "c3e3": 1393,
      "a7c7": 1394,
      "e8g8c1e3": 1395,
      "e2e4d5e4": 1396,
      "g1f3c8g4f1e2": 1397,
      "g2g4h5": 1398,
      "b3b6": 1399,
      "e7g7": 1400,
      "c5a4": 1401,
      "b4c3d2c3": 1402,
      "c2c4c7c5": 1403,
      "e2e4b8c6": 1404,
      "b3d3": 1405,
      "h2h1q": 1406,
      "d4d5c6d5": 1407,
      "e8h8": 1408,
      "f6e5f4e5": 1409,
      "b4b2": 1410,
      "e6d5c4d5": 1411,
      "c4b5a6b5": 1412,
      "e1h4": 1413,
      "c1g5f7f6": 1414,
      "b8f8": 1415,
      "d2d3d7d6": 1416,
      "d1h5g7g6": 1417,
      "e2e4b7b6": 1418,
      "e6g5": 1419,
      "e2e4g7g6d2d4f8g7": 1420,
      "h5f5": 1421,
      "f2h4": 1422,
      "a4a2": 1423,
      "e2e4e7e6d2d4d7d5e4e5": 1424,
      "a7a6e1g1": 1425,
      "f2d2": 1426,
      "b3c2b3": 1427,
      "d4b2": 1428,
      "d5f7": 1429,
      "f6c3": 1430,
      "f3e5b8d7": 1431,
      "b8b3": 1432,
      "c6e5d4e5": 1433,
      "d6f7": 1434,
      "c1g5b8d7": 1435,
      "d1d8e8d8": 1436,
      "g4g6": 1437,
      "e2g2": 1438,
      "b8b1": 1439,
      "e5g5": 1440,
      "b7d7": 1441,
      "a2c2": 1442,
      "e2e4c7c5d2d4c5d4": 1443,
      "d6e5d6": 1444,
      "e4c6": 1445,
      "f3f6": 1446,
      "b1b6": 1447,
      "c5c4d3c2": 1448,
      "e2c1": 1449,
      "a5d8": 1450,
      "g8e7e1g1": 1451,
      "g1f3f8d6": 1452,
      "b1d2g8f6": 1453,
      "h8h4": 1454,
      "c2c1q": 1455,
      "h6g4": 1456,
      "b1b5": 1457,
      "g2g3d7d5f1g2": 1458,
      "e1d3": 1459,
      "d7d5e2e3": 1460,
      "h4h5g6h5": 1461,
      "a3b5": 1462,
      "b8c6c1e3": 1463,
      "b1c3b8d7": 1464,
      "b1d2b8d7": 1465,
      "f6f5e4": 1466,
      "c4a5": 1467,
      "b1f1": 1468,
      "e4f6e7f6": 1469,
      "e2e4c7c6d2d4d7d5e4d5c6d5": 1470,
      "e8c7": 1471,
      "a8b7": 1472,
      "b8c6f1g2": 1473,
      "e4b7": 1474,
      "c2c4d5": 1475,
      "d2a2": 1476,
      "d1e3": 1477,
      "d4f4": 1478,
      "c4c2": 1479,
      "c6e6": 1480,
      "c4b2": 1481,
      "f8e8f1e1": 1482,
      "d7d6e1g1": 1483,
      "c6a4": 1484,
      "f1g2f8g7": 1485,
      "c7c8q": 1486,
      "h7h6h2h3": 1487,
      "e6d5e6": 1488,
      "g1f3e8g8": 1489,
      "a1b2": 1490,
      "h1h4": 1491,
      "a2a3a7a6": 1492,
      "e1g1h2": 1493,
      "g7g8q": 1494,
      "h2f3": 1495,
      "a4a6": 1496,
      "f2f3e4f3": 1497,
      "a4a7": 1498,
      "g7g6e1g1f8g7": 1499,
      "c3c1": 1500,
      "c5a6": 1501,
      "e2e4d7d6d2d4g8f6": 1502,
      "g3e3": 1503,
      "f3d1": 1504,
      "f6d8": 1505,
      "c7c2": 1506,
      "h1h5": 1507,
      "a5a7": 1508,
      "h3f2": 1509,
      "d6a3": 1510,
      "a2a3b4c3b2c3": 1511,
      "h3e6": 1512,
      "g1f3c8b7": 1513,
      "g2b7": 1514,
      "c4a6": 1515,
      "b8c6b1c3": 1516,
      "f7d7": 1517,
      "h1h7": 1518,
      "d8d1e1d1": 1519,
      "g1f3a7a6": 1520,
      "d6f8": 1521,
      "a5b7": 1522,
      "e6c8": 1523,
      "h5h7": 1524,
      "d3g6h7g6": 1525,
      "e2e4e7e6d2d4d7d5e4d5e6d5": 1526,
      "d5b3": 1527,
      "f1e1f8e7": 1528,
      "e4c3b2c3": 1529,
      "d5b7": 1530,
      "b6f2": 1531,
      "h5g7": 1532,
      "d7d5e4d5d8d5": 1533,
      "d5f3": 1534,
      "f8e8e1g1": 1535,
      "f7f5e5f6": 1536,
      "e5c7": 1537,
      "f4f2": 1538,
      "g1f3b7b6": 1539,
      "e2e4d7d5": 1540,
      "f6d6": 1541,
      "c5b7": 1542,
      "h3f5": 1543,
      "h2h3g4f6": 1544,
      "a1a8": 1545,
      "b2b4c5b6": 1546,
      "a4b3a2b3": 1547,
      "g1f3c8f5": 1548,
      "h2h3g4f3e2f3": 1549,
      "h1h6": 1550,
      "d3d1": 1551,
      "h8h3": 1552,
      "e5e6f7e6": 1553,
      "c8f5e4": 1554,
      "c7c3": 1555,
      "b1b8": 1556,
      "d2d6": 1557,
      "b2b4c5b4": 1558,
      "d8b6g1h1": 1559,
      "e3c3": 1560,
      "f3f7": 1561,
      "g4h6": 1562,
      "e5e7": 1563,
      "c6e8": 1564,
      "e6e8": 1565,
      "h8b8": 1566,
      "f4e5f6e5": 1567,
      "f7d5": 1568,
      "f2f4d7d5": 1569,
      "d8b6b2b3": 1570,
      "c4a3": 1571,
      "e3e1": 1572,
      "c2c7": 1573,
      "e8g8h7": 1574,
      "g2g1q": 1575,
      "b2d2": 1576,
      "g3g5": 1577,
      "g3g6": 1578,
      "g2g3f8g7": 1579,
      "f5e4f3e4": 1580,
      "d2d4b7b6": 1581,
      "d1d2e8g8": 1582,
      "c3d5c6d5": 1583,
      "h7h5h2h3": 1584,
      "a6a8": 1585,
      "h3g5": 1586,
      "a2d5": 1587,
      "d2d4d7d5g1f3g8f6": 1588,
      "a4b2": 1589,
      "c6c4": 1590,
      "e8h5": 1591,
      "d2d4e7e5d4e5": 1592,
      "e4e6": 1593,
      "d6g3h2g3": 1594,
      "h7f6": 1595,
      "c3a2": 1596,
      "d6b5": 1597,
      "f5f7": 1598,
      "f5e4d3e4": 1599,
      "c6c8": 1600,
      "b3f7": 1601,
      "g1f3h7h6": 1602,
      "d4d5c6e5": 1603,
      "f5g6h7g6": 1604,
      "f6e4c3": 1605,
      "e2e3f8g7": 1606,
      "c2c5": 1607,
      "e5b2": 1608,
      "a3d6": 1609,
      "e2e3e8g8": 1610,
      "g4e2d1e2": 1611,
      "f1d3f8d6": 1612,
      "g2g3g7g6f1g2f8g7": 1613,
      "d3f2": 1614,
      "d2f3e5": 1615,
      "b6c7b6": 1616,
      "e5e3": 1617,
      "d2d4f7f5": 1618,
      "d4b4": 1619,
      "f5h7": 1620,
      "c5a5": 1621,
      "e6b3": 1622,
      "c7b5": 1623,
      "e5c3": 1624,
      "f7f8q": 1625,
      "d6g6": 1626,
      "c4a4": 1627,
      "c5c3": 1628,
      "d2d1q": 1629,
      "g5h7": 1630,
      "f4f5g6f5": 1631,
      "d7d8q": 1632,
      "g2g3b8c6f1g2": 1633,
      "g4f3d1f3": 1634,
      "b1c3g8e7": 1635,
      "e5d4f3d4": 1636,
      "a7a6b5c6b7c6": 1637,
      "d8e7d8": 1638,
      "c4c6": 1639,
      "g4f5g4": 1640,
      "h7h5h2h4": 1641,
      "d5d8": 1642,
      "d7d6h2h3": 1643,
      "e6e4": 1644,
      "e2e4e7e5d2d4e5d4": 1645,
      "d3b4": 1646,
      "d2d3b8c6": 1647,
      "f1g1f1": 1648,
      "e2e3c7c6": 1649,
      "h8h2": 1650,
      "f3g5h7h6g5": 1651,
      "e2e4c7c6g1f3": 1652,
      "c3a5": 1653,
      "c4c7": 1654,
      "e2e4e7e6g1f3": 1655,
      "e5c6b7c6": 1656,
      "c6f3": 1657,
      "d8e6": 1658,
      "f8e7e1g1": 1659,
      "a3a1": 1660,
      "g4e4": 1661,
      "b5b4c3e2": 1662,
      "f1d3e7e6": 1663,
      "d2g2": 1664,
      "b8d7b1d2": 1665,
      "e6d5e4d5": 1666,
      "b6a4": 1667,
      "c2c4d7d6": 1668,
      "f3g1": 1669,
      "c4e4": 1670,
      "f4f6": 1671,
      "a3c3": 1672,
      "e4e5d6e5d4e5": 1673,
      "e2e4e7e5g1f3g8f6": 1674,
      "f5d5": 1675,
      "a4d7": 1676,
      "g5e5": 1677,
      "b7b5c4d3": 1678,
      "d2d3d7d5": 1679,
      "b5c4b3c4": 1680,
      "f3e5e8g8": 1681,
      "c5e5": 1682,
      "f2f1q": 1683,
      "f4d4": 1684,
      "a8b8b2b3": 1685,
      "b3a5": 1686,
      "g6e6": 1687,
      "e2e4f8g7": 1688,
      "d7d5e4d5f6d5": 1689,
      "e2e7": 1690,
      "g6f8": 1691,
      "d5c4d3c4": 1692,
      "d7b8": 1693,
      "e2e4c7c5g1f3d7d6d2d4c5d4f3d4g8f6b1c3a7a6": 1694,
      "c8g8": 1695,
      "h4e4": 1696,
      "f4c1": 1697,
      "d2d3e7e6": 1698,
      "g5d8": 1699,
      "h5e5": 1700,
      "e2e4c7c6g1f3d7d5e4d5c6d5": 1701,
      "g8e8": 1702,
      "f6f2": 1703,
      "g4d1": 1704,
      "f8d7": 1705,
      "c6e5f3e5d6e5": 1706,
      "d5d4c3d4": 1707,
      "f6e5d4e5": 1708,
      "h4g3h2g3": 1709,
      "g1e1": 1710,
      "c7c5g1f3b8c6": 1711,
      "g2g3f8g7f1g2": 1712,
      "a6e2": 1713,
      "d5f5": 1714,
      "h3f3": 1715,
      "h1b1": 1716,
      "g8g5": 1717,
      "f7d6": 1718,
      "b6b8": 1719,
      "b1d2f8d6": 1720,
      "a2a3e8g8": 1721,
      "c5a3": 1722,
      "h8a8": 1723,
      "c8f5g1f3e7e6": 1724,
      "e5e4f3d4": 1725,
      "f4f5e6": 1726,
      "g7f5": 1727,
      "g2c6": 1728,
      "e5e2": 1729,
      "d5d4e3d4": 1730,
      "c3b1": 1731,
      "a6c6": 1732,
      "e4h4": 1733,
      "c8e6c4e6f7e6": 1734,
      "e2e3b8d7": 1735,
      "d4d6": 1736,
      "b2f2": 1737,
      "d1e2e8g8": 1738,
      "d2d4c8b7": 1739,
      "e2e3b8c6": 1740,
      "a5d2": 1741,
      "f2f4e8g8": 1742,
      "d4g7": 1743,
      "d2d3h7h6": 1744,
      "f7h5": 1745,
      "c3c5": 1746,
      "e2e4g8f6e4e5f6d5": 1747,
      "d5b5": 1748,
      "a7d7": 1749,
      "g2g3e7e6": 1750,
      "c4c5b6": 1751,
      "g1f3e8g8e1g1": 1752,
      "f6f3": 1753,
      "g1g4": 1754,
      "e3h3": 1755,
      "b7e7": 1756,
      "f1c4d7d6": 1757,
      "d8c8d8": 1758,
      "d8h4g2g3": 1759,
      "c5c2": 1760,
      "b1e4": 1761,
      "b8c6e2e3": 1762,
      "a6c8": 1763,
      "d2d7": 1764,
      "e2e1q": 1765,
      "b7b5a4b5a6b5": 1766,
      "c8e6d5": 1767,
      "e1f3": 1768,
      "c2c4d5b6": 1769,
      "f7c7": 1770,
      "f1c4b8c6": 1771,
      "f8c5d4": 1772,
      "f5c8": 1773,
      "e3c2": 1774,
      "e5g7": 1775,
      "d2e4d5e4": 1776,
      "e2e4d7d5e4e5": 1777,
      "f5f3": 1778,
      "e2e4e7e5g1f3b8c6d2d4e5d4f3d4": 1779,
      "c3c7": 1780,
      "a7a6b5c3": 1781,
      "e7a7": 1782,
      "c6d4c3d4": 1783,
      "e7e3": 1784,
      "b4d4": 1785,
      "b7f7": 1786,
      "d6d5e4e5": 1787,
      "f2c2": 1788,
      "f1f8": 1789,
      "b2e2": 1790,
      "e6c6": 1791,
      "g4f5g6f5": 1792,
      "d2d4c7c5": 1793,
      "e2e4d7d5e4d5g8f6": 1794,
      "e2e4e7e6g1f3d7d5e4d5e6d5": 1795,
      "e7e8q": 1796,
      "f7e5": 1797,
      "c8h8": 1798,
      "f5g6f7g6": 1799,
      "f3c3": 1800,
      "e8c6": 1801,
      "b7g2": 1802,
      "c2b4": 1803,
      "a7d4": 1804,
      "b1c3c8b7": 1805,
      "h5g6h5": 1806,
      "f8a3": 1807,
      "d6b7": 1808,
      "e1c3": 1809,
      "e8g7": 1810,
      "f1c4f8g7": 1811,
      "b1d2f8e7": 1812,
      "d5d3": 1813,
      "g6g4": 1814,
      "h7h6h2h4": 1815,
      "e6c7": 1816,
      "c1g1": 1817,
      "a2a3b4c6": 1818,
      "c7c6e1g1": 1819,
      "h4h2": 1820,
      "b2c4": 1821,
      "b1d3": 1822,
      "c8d7e1g1": 1823,
      "a5a4b3a4": 1824,
      "h7h6e1g1": 1825,
      "g2g4f5g6": 1826,
      "d1d4b8c6": 1827,
      "b4b6": 1828,
      "h2h3h7h5": 1829,
      "c3f6": 1830,
      "e4f6g7f6": 1831,
      "e4c4": 1832,
      "f1d3c8g4": 1833,
      "e5d6f8d6": 1834,
      "c1g5e7e6": 1835,
      "d7g7": 1836,
      "g4g5h6g5": 1837,
      "f1d3b8c6": 1838,
      "g3f1": 1839,
      "g1g7": 1840,
      "f2h2": 1841,
      "f7h7": 1842,
      "e2e4d7d5e4d5d8d5b1c3d5a5": 1843,
      "a3e7": 1844,
      "f2f4b8c6": 1845,
      "d1e2d1": 1846,
      "h1a1": 1847,
      "g2g3e8g8": 1848,
      "d7d5c1b2": 1849,
      "b7b5a2a4": 1850,
      "c1e3f8g7": 1851,
      "d1c1d1": 1852,
      "b6b3": 1853,
      "e5h5": 1854,
      "e2a2": 1855,
      "b6c8": 1856,
      "e2e3c7c5": 1857,
      "c4f1": 1858,
      "d6a6": 1859,
      "c2c6": 1860,
      "e1g1e8g8f1e1": 1861,
      "d2d3e8g8": 1862,
      "b5a4b5": 1863,
      "d4a4": 1864,
      "d2e4f6e4": 1865,
      "e3e6": 1866,
      "g5c1": 1867,
      "g8f6c1b2": 1868,
      "d2d4c7c5d4d5": 1869,
      "b6e6": 1870,
      "h6f6": 1871,
      "b7c5": 1872,
      "d5a2": 1873,
      "g4h2": 1874,
      "h2h3g4h6": 1875,
      "b5d7d8d7": 1876,
      "e7e6e1g1": 1877,
      "d5d4c3e4": 1878,
      "b5b4a3b4a5b4": 1879,
      "d4a7": 1880,
      "g8g2": 1881,
      "d6e8": 1882,
      "b2g7": 1883,
      "d2d4d7d5c2c4d5c4": 1884,
      "e2e4c7c5b1c3b8c6": 1885,
      "f1d3b8d7": 1886,
      "b2b3e8g8": 1887,
      "d7d3": 1888,
      "f4f7": 1889,
      "c5e3f2e3": 1890,
      "g6g3": 1891,
      "h4g5h6g5": 1892,
      "b5b4c3b4": 1893,
      "e2e4c7c5g1f3e7e6d2d4c5d4f3d4": 1894,
      "a5d5": 1895,
      "d8d1f1d1": 1896,
      "f2d3": 1897,
      "g5h3": 1898,
      "f5g7": 1899,
      "f2f5": 1900,
      "b3b1": 1901,
      "b2d3": 1902,
      "g1g6": 1903,
      "d2d4g8f6c2c4g7g6b1c3f8g7": 1904,
      "c1d3": 1905,
      "c8b7e1g1": 1906,
      "d2f3d2": 1907,
      "h2h3g4h5g2g4h5g6": 1908,
      "c7c5c2c3b8c6g1f3": 1909,
      "g8g3": 1910,
      "a4b5c6b5": 1911,
      "f1c4f8e7": 1912,
      "e7e2": 1913,
      "g8g4": 1914,
      "f1a6": 1915,
      "d3e4f5e4": 1916,
      "b5a7": 1917,
      "b4b7": 1918,
      "g1g5": 1919,
      "f2f3e8g8": 1920,
      "b7b6b2b4": 1921,
      "d5d4c3e2": 1922,
      "g6c2": 1923,
      "b3e3": 1924,
      "e4d5e4f3": 1925,
      "f3e4f5e4": 1926,
      "c1g5f8g7": 1927,
      "e5c5": 1928,
      "d1d8f8d8": 1929,
      "c3d5f6d5e4d5": 1930,
      "h5g3h2g3": 1931,
      "a4d1": 1932,
      "e2e4e7e5f2f4e5f4": 1933,
      "g6g5h4g3": 1934,
      "c2c3f8g7": 1935,
      "c1f4e8g8": 1936,
      "b5d5": 1937,
      "d4d7": 1938,
      "d5c6b7c6": 1939,
      "f7g5": 1940,
      "h4g2": 1941,
      "g5f4g3f4": 1942,
      "g3c7": 1943,
      "g2g3c7c6": 1944,
      "d1f2": 1945,
      "d3f5e6f5": 1946,
      "e4g2": 1947,
      "e2e3d7d6": 1948,
      "g2g3e7e6f1g2": 1949,
      "h3h6": 1950,
      "e5d7d8d7": 1951,
      "b7b5c4a2": 1952,
      "g4f5e6f5": 1953,
      "e3f1": 1954,
      "a2c4": 1955,
      "c8g4h2h3g4f3d1f3": 1956,
      "b5b2": 1957,
      "f7f4": 1958,
      "e4e7": 1959,
      "g4g7": 1960,
      "a2d2": 1961,
      "f1c4d5": 1962,
      "d3d7": 1963,
      "g5f6d7f6": 1964,
      "d5e6f7e6": 1965,
      "b2b4a7a6": 1966,
      "d8d1a1d1": 1967,
      "d6d2": 1968,
      "f5b1": 1969,
      "f5e6f7e6": 1970,
      "f1e2g8f6": 1971,
      "e1c1e8g8": 1972,
      "c1e3f8e7": 1973,
      "b1c3e7e5": 1974,
      "e5d6c7d6": 1975,
      "d3b2": 1976,
      "c2c3b8d7": 1977,
      "h5h4g3h4": 1978,
      "f2c5": 1979,
      "h6h4": 1980,
      "d2d3f8e7": 1981,
      "a5a8": 1982,
      "e7e5d4d5c6e7": 1983,
      "e2e4e7e5g1f3b8c6f1b5a7a6b5a4": 1984,
      "g3e1": 1985,
      "a5b6a7b6": 1986,
      "e2e4d7d5e4d5d8d5b1c3d5d8": 1987,
      "d3d6": 1988,
      "c2g2": 1989,
      "c2c3f8e7": 1990,
      "f2f4f8g7": 1991,
      "f5f2": 1992,
      "h4h5g6g5": 1993,
      "d5d2": 1994,
      "d3a3": 1995,
      "f3e5c6e5d4e5": 1996,
      "b5b3": 1997,
      "e5f6g7f6": 1998,
      "b7b4": 1999,
      "e4e5f6g4": 2000,
      "c1h1": 2001,
      "e7e5c1b2": 2002,
      "b7d6": 2003,
      "e4e1": 2004,
      "a2f2": 2005,
      "h3h5": 2006,
      "b1d2e7e6": 2007,
      "a1d1a1": 2008,
      "c6c2": 2009,
      "d2d4d7d5c2c4e7e6b1c3g8f6": 2010,
      "h5g4h3g4": 2011,
      "f5f4g3f4": 2012,
      "f2b2": 2013,
      "f4b8": 2014,
      "e6f8": 2015,
      "a7a4": 2016,
      "f2e4": 2017,
      "f1d3f8g7": 2018,
      "d4c5f8c5": 2019,
      "h2e5": 2020,
      "c6c5c2c3": 2021,
      "h2h3g4e6": 2022,
      "c2c4e8g8": 2023,
      "g8e7e1g1e8g8": 2024,
      "b1c3f8c5": 2025,
      "e5d6e7d6": 2026,
      "a5e5": 2027,
      "g1e2e8g8e1g1": 2028,
      "a7c5": 2029,
      "d1b3b7b6": 2030,
      "f4g2": 2031,
      "f7b7": 2032,
      "e4h7": 2033,
      "e2e4e7e5g1f3": 2034,
      "g8f6f1d3": 2035,
      "e1c2": 2036,
      "d2d4b8d7": 2037,
      "c6c3": 2038,
      "g5g7": 2039,
      "d4h4": 2040,
      "d4c5b6c5": 2041,
      "c2c3c7c5": 2042,
      "f8d6f4g3": 2043,
      "g4h5g6h5": 2044,
      "b8g8": 2045,
      "d2e4f5e4": 2046,
      "d6c8": 2047,
      "d5a5": 2048,
      "a4a1": 2049,
      "d4c3b2c3": 2050,
      "e6e5d4d5": 2051,
      "f3e5d7e5d4e5": 2052,
      "c6d4f3d4c5d4": 2053,
      "d7d2": 2054,
      "a7b5": 2055,
      "g2g3d7d6": 2056,
      "a3c1": 2057,
      "c4f7e8f7": 2058,
      "a7f7": 2059,
      "c1e3b8d7": 2060,
      "d5g2": 2061,
      "d2d8": 2062,
      "h4d8": 2063,
      "e6g7": 2064,
      "a2a5": 2065,
      "f8d8f8": 2066,
      "h6h8": 2067,
      "f8e8f8": 2068,
      "c1e3b7b6": 2069,
      "g1d1": 2070,
      "f2f7": 2071,
      "a7e7": 2072,
      "a3a5": 2073,
      "h4h7": 2074,
      "c6d5c4d5": 2075,
      "h4g6h7g6": 2076,
      "c7g7": 2077,
      "d8a5c1d2": 2078,
      "b8c6f1b5": 2079,
      "h7h6g5h4g7g5h4g3": 2080,
      "b4c5b6c5": 2081,
      "h8h1": 2082,
      "f3d2e4": 2083,
      "d6d3": 2084,
      "g5g4h3g4": 2085,
      "e2e4c7c6d2d4d7d5b1c3d5e4c3e4": 2086,
      "c1f4e5": 2087,
      "e7c5g1h1": 2088,
      "d7d1": 2089,
      "c7e8": 2090,
      "e2e4c7c5g1f3b8c6f1b5": 2091,
      "b7b6e1g1c8b7": 2092,
      "c3e1": 2093,
      "e7d6e5": 2094,
      "f2g4": 2095,
      "c1e3e7e6": 2096,
      "c5f8": 2097,
      "b7b2": 2098,
      "c1g5c7c6": 2099,
      "d8f7": 2100,
      "b4a2": 2101,
      "h5h8": 2102,
      "b2b4a5b6": 2103,
      "a8d8a8": 2104,
      "a7a6b5a3": 2105,
      "a6a4": 2106,
      "d4g4": 2107,
      "h2h3f8e7": 2108,
      "f2f4e7e6": 2109,
      "b2b3d7d5c1b2": 2110,
      "d2d4c8g4": 2111,
      "h4g3f2g3": 2112,
      "e5e1": 2113,
      "d2b1": 2114,
      "b1c3c8e6": 2115,
      "f8d6f4d6d8d6": 2116,
      "d3e1": 2117,
      "c2c4b8c6": 2118,
      "d3g6f7g6": 2119,
      "d5h5": 2120,
      "g4g2": 2121,
      "f3e5c6e5f4e5": 2122,
      "e7g8": 2123,
      "g5g2": 2124,
      "d2d4g8f6g1f3g7g6": 2125,
      "b1c3c7c5": 2126,
      "e2e3c8f5": 2127,
      "b2b3c4b3": 2128,
      "f1d3g7g6": 2129,
      "c1e3a7a6": 2130,
      "a1d1a8d8": 2131,
      "a5b6a5": 2132,
      "f4d6c7d6": 2133,
      "d3h3": 2134,
      "a2e2": 2135,
      "e2e4g8f6b1c3": 2136,
      "b8e5": 2137,
      "b1g1": 2138,
      "h7e4": 2139,
      "c8g4e1g1": 2140,
      "c3c6": 2141,
      "e3g2": 2142,
      "b5e8": 2143,
      "b7b5a4c2": 2144,
      "c1e3b8c6": 2145,
      "e2e4c7c6d2d4d7d5e4e5c8f5": 2146,
      "a4d4": 2147,
      "f3e5d6e5": 2148,
      "h2f4": 2149,
      "f1e1f1": 2150,
      "g4c8": 2151,
      "h7f8": 2152,
      "e2e3e7e5": 2153,
      "c8d6": 2154,
      "f5f4e3f4": 2155,
      "d7d8d7": 2156,
      "d2d4e8g8": 2157,
      "e6e5f4e5": 2158,
      "d2d3f8g7": 2159,
      "e5f3g2f3": 2160,
      "b2b6": 2161,
      "c6d5c6": 2162,
      "d2d4g8f6g1f3e7e6": 2163,
      "g3g7": 2164,
      "b3c1": 2165,
      "c7c6d5c6": 2166,
      "h5h6g7g6": 2167,
      "d2d4g8f6c2c4e7e6b1c3f8b4": 2168,
      "a5b4c3b4": 2169,
      "b2b5": 2170,
      "b2b4b7b6": 2171,
      "f2f4b8c6g1f3": 2172,
      "a8d8a1d1": 2173,
      "f1d3f8e7": 2174,
      "f7f5f2f3": 2175,
      "e5f6g4": 2176,
      "e1g1a7a6": 2177,
      "d6d5e4d5c6d5": 2178,
      "f1b5b8c6": 2179,
      "g2f4": 2180,
      "g8d8": 2181,
      "h6d2": 2182,
      "e1g1c8g4": 2183,
      "h7h6g5f4": 2184,
      "f3e5d7d6": 2185,
      "a1f1a1": 2186,
      "h7d3": 2187,
      "f6e7f6": 2188,
      "g3d3": 2189,
      "d2d4e7e6c2c4d7d5": 2190,
      "b7f3g2f3": 2191,
      "c3f3": 2192,
      "c3g3": 2193,
      "e6e2": 2194,
      "c1f4g8f6": 2195,
      "d7b6c4b3": 2196,
      "a8f8a8": 2197,
      "c3d5f6d5c4d5": 2198,
      "d4d5c6e7": 2199,
      "e3d4e3": 2200,
      "f1e2e8g8": 2201,
      "d4d5c6b8": 2202,
      "e2g1": 2203,
      "a2b4": 2204,
      "d2d4g7g6c2c4f8g7": 2205,
      "h1h8": 2206,
      "h5d1": 2207,
      "e2e3g7g6": 2208,
      "h7f5": 2209,
      "a2a3b4e7": 2210,
      "g1f3d7d5e4e5": 2211,
      "f3b3": 2212,
      "c4c1": 2213,
      "g3g4f5": 2214,
      "f7f2": 2215,
      "e7e5d4": 2216,
      "b7b3": 2217,
      "f3e5d8c7": 2218,
      "c1b2e8g8": 2219,
      "c5c8": 2220,
      "f2f4f7f6": 2221,
      "c3d5b7d5": 2222,
      "a3a7": 2223,
      "g6e8": 2224,
      "a3a6": 2225,
      "d4d8": 2226,
      "d4c5d6c5": 2227,
      "e4e5f6e8": 2228,
      "b4b5a6b5a4b5": 2229,
      "f6e4e1g1": 2230,
      "h2h3g4d7": 2231,
      "f6e4c3e4d5e4": 2232,
      "c2c8": 2233,
      "g2g3c7c5": 2234,
      "f7f6e5f6g7f6": 2235,
      "b8h8": 2236,
      "d7c7d7": 2237,
      "g5h4g3h4": 2238,
      "h7f7": 2239,
      "b7b5b2b3": 2240,
      "b2b3g8f6c1b2": 2241,
      "f1d1f1": 2242,
      "h6f8": 2243,
      "c1f4f8g7": 2244,
      "f4g3h2g3": 2245,
      "c7c1": 2246,
      "e1e8d8e8": 2247,
      "e7e1": 2248,
      "f1d2": 2249,
      "e2d2e2": 2250,
      "e6e3": 2251,
      "e1c1b7b5": 2252,
      "g2g3e7e5": 2253,
      "h4h5h7h6": 2254,
      "b1c3c8g4": 2255,
      "b1h1": 2256,
      "e4e5f6g8": 2257,
      "f8b4c2c3": 2258,
      "e5h2": 2259,
      "e2e8": 2260,
      "e6h6": 2261,
      "b7b8b7": 2262,
      "f8d6e1g1e8g8": 2263,
      "e8e1d1e1": 2264,
      "c6a5b3c2": 2265,
      "e7d8e7": 2266,
      "c2c4b7b6": 2267,
      "a7a3": 2268,
      "d2d4e5e4": 2269,
      "e2e4e7e5g1f3b8c6d2d4e5d4": 2270,
      "d5d1": 2271,
      "h2f1": 2272,
      "h3h1": 2273,
      "f1c4f8c5": 2274,
      "d3c1": 2275,
      "e3b3": 2276,
      "e8g8g7": 2277,
      "f1e2e7e6": 2278,
      "c1d2e8g8": 2279,
      "a6a2": 2280,
      "b1d2b8c6": 2281,
      "d1c2e8g8": 2282,
      "g4g5h6g5h4g5": 2283,
      "h2h3b8d7": 2284,
      "g2g3e8g8f1g2": 2285,
      "g5h6g7h6": 2286,
      "a2a3f8e7": 2287,
      "a6d6": 2288,
      "h2h3g4f5": 2289,
      "e2e3f8e7": 2290,
      "d2d3e7e5": 2291,
      "f4f5g6": 2292,
      "h2h3g4e5": 2293,
      "g7e6": 2294,
      "a8e4": 2295,
      "g2g3f8e7": 2296,
      "e3e7": 2297,
      "a8c6": 2298,
      "a2e6": 2299,
      "f2f4d7d5e4e5": 2300,
      "e4d5d8d5": 2301,
      "a1c1e8g8": 2302,
      "b2b4a5b4a3b4": 2303,
      "a1d1d8c7": 2304,
      "h4h1": 2305,
      "d6d1": 2306,
      "b4e1": 2307,
      "g8f6d2d3f8c5": 2308,
      "e4e5d6e5f3e5": 2309,
      "g7g5f4g3": 2310,
      "a6a3": 2311,
      "e7e5f4e5": 2312,
      "d2h2": 2313,
      "d3e4d3": 2314,
      "e7d7e7": 2315,
      "g4g5f6d7": 2316,
      "e2e3e8g8f1d3": 2317,
      "b7b5c4b5a6b5": 2318,
      "f1e2f8g7": 2319,
      "h2h3g4f3g2f3": 2320,
      "g2g3d7d6f1g2": 2321,
      "h6h3": 2322,
      "d1d8a8d8": 2323,
      "c8e7": 2324,
      "g1f3f8b4": 2325,
      "d8e7e1g1": 2326,
      "h5h4g3g4": 2327,
      "f6c6": 2328,
      "f1e1b8d7": 2329,
      "b7b6c5b6": 2330,
      "e5f3e2f3": 2331,
      "d8c6": 2332,
      "h5d5": 2333,
      "a5b3a2b3": 2334,
      "e7e5d4b3": 2335,
      "a7a6b5a4b7b5a4b3": 2336,
      "f3f1": 2337,
      "c2c3g7g6": 2338,
      "e5g6h7g6": 2339,
      "c7c5c2c3c5d4c3d4": 2340,
      "d8b6a1b1": 2341,
      "c6d4f3d4e5d4": 2342,
      "c2c3d7d5": 2343,
      "d8c7a1c1": 2344,
      "c2c3a7a6": 2345,
      "f8g7f8": 2346,
      "a1b1b7b6": 2347,
      "a8d5": 2348,
      "d1b3d8b6": 2349,
      "c8g4f2f3g4h5": 2350,
      "f7h6": 2351,
      "d6d5e4d5e6d5": 2352,
      "g2g3c7c6f1g2": 2353,
      "b2b7": 2354,
      "a1c3": 2355,
      "e5e8": 2356,
      "c8e6b2b3": 2357,
      "d1c3": 2358,
      "b1c3h7h6": 2359,
      "e6b6": 2360,
      "a7a2": 2361,
      "f5f6g7f6": 2362,
      "c5c4d3e2": 2363,
      "e8b5": 2364,
      "b8d6": 2365,
      "h8g8f7": 2366,
      "h2h3a7a6": 2367,
      "e4e3f2e3": 2368,
      "e3g1": 2369,
      "g7g6h2h4": 2370,
      "h4d4": 2371,
      "a3d3": 2372,
      "f6f8": 2373,
      "f5d3c2d3": 2374,
      "d2d1d2": 2375,
      "g8f6b1c3f8e7": 2376,
      "a5h5": 2377,
      "g8f6e1g1f8e7": 2378,
      "c2c3g8e7": 2379,
      "a7e3": 2380,
      "b1c3f7f5": 2381,
      "f6e4d1c2": 2382,
      "d1e2f8e7": 2383,
      "c4c5d6c5": 2384,
      "e1b4": 2385,
      "b1f5": 2386,
      "d2d4c8f5": 2387,
      "b1c3c8f5": 2388,
      "c2c3f8d6": 2389,
      "d1d2b8d7": 2390,
      "h7h6g5h3": 2391,
      "a4e4": 2392,
      "h5h2": 2393,
      "e1g1c7c6": 2394,
      "f1e2f8e7": 2395,
      "d7c5d3c2": 2396,
      "f8h7": 2397,
      "e2e4e7e6d2d4d7d5e4e5c7c5c2c3b8c6g1f3": 2398,
      "c4c8": 2399,
      "g7g6e2e3f8g7": 2400,
      "e7e5d4b5": 2401,
      "a7a6b5d3": 2402,
      "f1h2": 2403,
      "e4e8": 2404,
      "c2c3h7h6": 2405,
      "b3f3": 2406,
      "e1g1g2": 2407,
      "a5a4a2a3": 2408,
      "c6g2": 2409,
      "e5e4d3e4": 2410,
      "d3d8": 2411,
      "b1c3b7b6": 2412,
      "d7b6b2b3": 2413,
      "c8b6": 2414,
      "g1f3e7e5": 2415,
      "c2c4b8d7": 2416,
      "e4b1": 2417,
      "d5g5": 2418,
      "d5d6e7": 2419,
      "c1g5h7h6g5h4g7g5h4g3": 2420,
      "f8d6e5": 2421,
      "e4e5d7d5": 2422,
      "b2b1b2": 2423,
      "d4c6d7c6": 2424,
      "c3g7": 2425,
      "b5b8": 2426,
      "f4g3f2g3": 2427,
      "h4e7d8e7": 2428,
      "c1f4d7d6": 2429,
      "d3h7g8h8": 2430,
      "a2a7": 2431,
      "d4d5e6e5": 2432,
      "c3d5d8d5": 2433,
      "c2c3e7e5": 2434,
      "d2d3f8c5": 2435,
      "d3d4e5d4c3d4": 2436,
      "h3g2g1g2": 2437,
      "b2b3b8c6": 2438,
      "f7g7f7": 2439,
      "d2d3g7g6": 2440,
      "f2f6": 2441,
      "f2f4g7g6": 2442,
      "b7b5c4b3c8b7": 2443,
      "e2e4b7b6d2d4c8b7": 2444,
      "g1f3g8e7": 2445,
      "h2h3f8g7": 2446,
      "c6f6": 2447,
      "g4d4": 2448,
      "a1d4": 2449,
      "b5a4b3a4": 2450,
      "c1f4c7c6": 2451,
      "c4c5d6c7": 2452,
      "c7a6": 2453,
      "g2e2": 2454,
      "e3d1": 2455,
      "f1b5c7c6": 2456,
      "c1g5f7f6g5h4": 2457,
      "c2h7": 2458,
      "f8e7f8": 2459,
      "f3e5d7e5": 2460,
      "c1f4e7e6": 2461,
      "f3e4d5e4": 2462,
      "g7e7": 2463,
      "a2a6": 2464,
      "c2c3c7c6": 2465,
      "b2b4c5": 2466,
      "h7h6g5e4": 2467,
      "b8a6a2a3": 2468,
      "d7e5f3e5d6e5": 2469,
      "d1d2f8e8": 2470,
      "d5e4d2e4": 2471,
      "h2f2": 2472,
      "b6f6": 2473,
      "d2d4e7e5": 2474,
      "g8c8": 2475,
      "d8c7d8": 2476,
      "d6g3f2g3": 2477,
      "g7c3b2c3": 2478,
      "b4d2d1d2": 2479,
      "g6h7g6": 2480,
      "d5c4f1c4": 2481,
      "g4g5h6h5": 2482,
      "f2h3": 2483,
      "b2b4a7a5": 2484,
      "h4g3h4": 2485,
      "d4d5e6d5e4d5": 2486,
      "e2e4e8g8": 2487,
      "c2c4g7g6b1c3f8g7": 2488,
      "c3c4d5c4": 2489,
      "h6g5h4g5": 2490,
      "d2d4d7d5c2c4c7c6b1c3g8f6": 2491,
      "e2h2": 2492,
      "b8c6g1f3c8g4": 2493,
      "h1g1f2": 2494,
      "e4e5f6e4": 2495,
      "f1d3c8b7": 2496,
      "b5b4c3a4": 2497,
      "h7h6g5f6e7f6": 2498,
      "f1d3f5g6": 2499,
      "e2d3e2": 2500,
      "g3f5g6": 2501,
      "d7d5c4d5f6d5": 2502,
      "d5d6c7": 2503,
      "e3e8": 2504,
      "a1e5": 2505,
      "b7b5c4": 2506,
      "d4d5e6d5c4d5": 2507,
      "d3e4d5": 2508,
      "e1e8a8e8": 2509,
      "b4b1": 2510,
      "d2d4f8d6": 2511,
      "e4e5d6d5": 2512,
      "d3d4c5d4c3d4": 2513,
      "h8g7h8": 2514,
      "g1c1": 2515,
      "f4f1": 2516,
      "h7h6g5d2": 2517,
      "f2a2": 2518,
      "f2f4g8f6": 2519,
      "e2e3b7b6": 2520,
      "b2b3e7e5c1b2": 2521,
      "f5e4c3e4": 2522,
      "g1e2e8g8": 2523,
      "g5d5": 2524,
      "g6g2": 2525,
      "b1d2c8b7": 2526,
      "e8d7e8": 2527,
      "f7f5e4f5g6f5": 2528,
      "f3e5e4": 2529,
      "c2c3c8g4": 2530,
      "c5d4e2d4": 2531,
      "a2a3b4a6": 2532,
      "f7a7": 2533,
      "b2g2": 2534,
      "f2f4b8d7": 2535,
      "c1e3g8e7": 2536,
      "g8f6f2f3": 2537,
      "f3e5b8c6": 2538,
      "b1a3a7a6": 2539,
      "c4f4": 2540,
      "c7a8": 2541,
      "f1c4c7c6": 2542,
      "d2d4f8e7": 2543,
      "d6c5d6": 2544,
      "b7b5a2a3c8b7": 2545,
      "c6a8": 2546,
      "b7b5c4b5": 2547,
      "g5e6f7e6": 2548,
      "c1f4g8f6e2e3": 2549,
      "e1c1b8d7": 2550,
      "g1a1": 2551,
      "h3d7": 2552,
      "f7f3": 2553,
      "f6d5c3d5d8d5": 2554,
      "d2e3d2": 2555,
      "c3c8": 2556,
      "f5f4g3": 2557,
      "d6f4e3f4": 2558,
      "e2e4c7c5d2d4c5d4c2c3d4c3": 2559,
      "b8c6d4c6b7c6": 2560,
      "e2e4e7e5b1c3b8c6": 2561,
      "c2e1": 2562,
      "h3e3": 2563,
      "e2e3a7a6": 2564,
      "d2d4d7d5c2c4": 2565,
      "e4f3g2f3": 2566,
      "f7c4": 2567,
      "h4e1": 2568,
      "c7c5e1g1": 2569,
      "e5f6e7f6": 2570,
      "d5e6c8e6": 2571,
      "h3h7": 2572,
      "c2c4d5d4": 2573,
      "g5f4e3f4": 2574,
      "d4e6f7e6": 2575,
      "g2e3": 2576,
      "c7c6d5c6b7c6": 2577,
      "e1d2e1": 2578,
      "d4f3g2f3": 2579,
      "b3g3": 2580,
      "e8g8h2h4": 2581,
      "f5f4e3": 2582,
      "f6e4f3e4": 2583,
      "f7e6f7": 2584,
      "d6d5e4d5f6d5": 2585,
      "c5c1": 2586,
      "f2f4f8e7": 2587,
      "e6d8": 2588,
      "b1c3d5d8": 2589,
      "e2e4e7e5g1f3b8c6f1c4g8f6": 2590,
      "f8b4b1c3": 2591,
      "g4h3g2h3": 2592,
      "f1d3d7d6": 2593,
      "a2g2": 2594,
      "f6e4f2f3": 2595,
      "c3e4f6e4d3e4": 2596,
      "e2e4c7c5g1f3d7d6d2d4c5d4f3d4": 2597,
      "h5e8": 2598,
      "a7c6": 2599,
      "f1e1h7h6": 2600,
      "c2c4g8f6b1c3g7g6": 2601,
      "d7h7": 2602,
      "c1e3d7d6": 2603,
      "h2h3c8e6": 2604,
      "b4e4": 2605,
      "h2h3g8f6": 2606,
      "f7f6g5h4": 2607,
      "b2b3e8g8c1b2": 2608,
      "f1c4g8f6d2d3": 2609,
      "f7h8": 2610,
      "c6e5f4e5": 2611,
      "e7h7": 2612,
      "a3e3": 2613,
      "f2f4e5g6": 2614,
      "e3b6a7b6": 2615,
      "b7g7": 2616,
      "g2g4h7h6": 2617,
      "e1c1a7a6": 2618,
      "b5f1": 2619,
      "f1e1d8c7": 2620,
      "g8h8g8": 2621,
      "a5a1": 2622,
      "h3h4h7h6": 2623,
      "g5g4h3g4h5g4": 2624,
      "e6e1": 2625,
      "g2g3c7c5f1g2": 2626,
      "f3e5f7f6": 2627,
      "e6e5d4e5d6e5": 2628,
      "c3a1": 2629,
      "d1d8e7d8": 2630,
      "g6d6": 2631,
      "a4a5b6": 2632,
      "f2b6": 2633,
      "f1c4e8g8e1g1": 2634,
      "e3c5d6c5": 2635,
      "g1b1": 2636,
      "d8c7e1g1": 2637,
      "d8b6d1b3": 2638,
      "e4d5e4f3d2": 2639,
      "g1f1e2": 2640,
      "b2b4a5c7": 2641,
      "h6e6": 2642,
      "h2d6": 2643,
      "e2e4g7g6g1f3f8g7": 2644,
      "c1h6g7h6": 2645,
      "e5b8": 2646,
      "e7d6e7": 2647,
      "c2c4c8b7": 2648,
      "g2g3b7b6": 2649,
      "a2a3b4d6": 2650,
      "c5f5": 2651,
      "a7a6b5c6d7c6": 2652,
      "f1g2e8g8e1g1": 2653,
      "c8f5e2e3e7e6": 2654,
      "c3d5e6d5e4d5": 2655,
      "c1e2": 2656,
      "f4f3g2f3": 2657,
      "d6h6": 2658,
      "g8b8": 2659,
      "d1d3g7g6": 2660,
      "c1g5h7h6g5f6d8f6": 2661,
      "f6d8f6": 2662,
      "c2c4g8f6b1c3e7e6": 2663,
      "e1g2": 2664,
      "d5e4f3e4": 2665,
      "c8g4h2h3g4h5g2g4h5g6": 2666,
      "g1f3c5d4f3d4": 2667,
      "d1c2d1": 2668,
      "a8b8a1b1": 2669,
      "h5h4h2h3": 2670,
      "a7g7": 2671,
      "c8d7c8": 2672,
      "e1c1e8c8": 2673,
      "c2c3g8f6d2d3": 2674,
      "f2f4f7f5": 2675,
      "f3e5c8b7": 2676,
      "b4c3b2": 2677,
      "a5f5": 2678,
      "e4e5d6e5d4": 2679,
      "g1e2e7e6": 2680,
      "c6c5d4d5": 2681,
      "g2g3e7e5f1g2": 2682,
      "h3h4h7h5": 2683,
      "e1g1b4c3b2c3": 2684,
      "g2g3h7h5": 2685,
      "f5e3f2e3": 2686,
      "e1g1g7g6": 2687,
      "c2c3d7d5e4d5d8d5": 2688,
      "d2d4g8f6g1f3d7d5": 2689,
      "f6b6": 2690,
      "g6h8": 2691,
      "e4b4": 2692,
      "d2d4c7c6c2c4d7d5": 2693,
      "f3e2f3": 2694,
      "a2c3": 2695,
      "b2b3b7b5": 2696,
      "f6e4b1d2": 2697,
      "e3d4c5d4": 2698,
      "d1a4c8d7": 2699,
      "e6b3a2b3": 2700,
      "g1f3f7f6": 2701,
      "d3h7g8h7": 2702,
      "e8g8c1g5": 2703,
      "e5e4f3d2": 2704,
      "c2c4f7f5": 2705,
      "c8g4f1e2e7e6": 2706,
      "c1e3c5e3f2e3": 2707,
      "c1b3": 2708,
      "f3f4e5f4": 2709,
      "g8a8": 2710,
      "d2d4d7d5g1f3e7e6": 2711,
      "g8f6c1g5f8e7": 2712,
      "e2e4c7c5g1f3g7g6": 2713,
      "e8e1a1e1": 2714,
      "e3e4d5e4d2e4": 2715,
      "e5a5": 2716,
      "f1d3g8e7": 2717,
      "c1f4a7a6": 2718,
      "c6d4c2c3": 2719,
      "e2e4e7e5g1f3g8f6b1c3": 2720,
      "e2e4c7c5f1c4e7e6": 2721,
      "f2f4c7c5": 2722,
      "d1d2a7a6": 2723,
      "e4g3h2g3": 2724,
      "f7f8f7": 2725,
      "a5g5": 2726,
      "g4f3f1f3": 2727,
      "d1b3g8h8": 2728,
      "e1g1c8d7": 2729,
      "b6c5b4c5": 2730,
      "b2b3e7e6": 2731,
      "f7f5e5": 2732,
      "g4g5f6h5": 2733,
      "e3a3": 2734,
      "c1b2g8f6": 2735,
      "b4b3a2b3": 2736,
      "c6e5c4b3": 2737,
      "g7d4g1h1": 2738,
      "g8f8e7": 2739,
      "a6e6": 2740,
      "e8g8c2c3": 2741,
      "g2g3f4": 2742,
      "d5c4b3c4": 2743,
      "h3f1": 2744,
      "d2d4c5b6": 2745,
      "a2a3a8c8": 2746,
      "e4e5f6h5": 2747,
      "b6b5a4b5a6b5": 2748,
      "f3e5a8c8": 2749,
      "e1g1e8c8": 2750,
      "e8c8e1g1": 2751,
      "g1f3e8g8f1e2": 2752,
      "f1b5c8d7b5d7": 2753,
      "d1c2g7g6": 2754,
      "e1g1c8e6": 2755,
      "d5e3f2e3": 2756,
      "b4b8": 2757,
      "b2b4c5b4a3b4": 2758,
      "e4a4": 2759,
      "d1c2b8d7": 2760,
      "d4c5e7c5": 2761,
      "c6g6": 2762,
      "g1f3f7f5": 2763,
      "b8f4": 2764,
      "g1f3e8g8f1d3": 2765,
      "f8c5g1h1": 2766,
      "e8g8f1e1": 2767,
      "c8b7c8": 2768,
      "e3d4e5d4": 2769,
      "d1c2h7h6": 2770,
      "a6a5a2a3": 2771,
      "b4b5c6b5": 2772,
      "a7a6b1c3": 2773,
      "g5g6f7g6": 2774,
      "h7h8h7": 2775,
      "e2e4c7c5b1c3e7e6": 2776,
      "f1d1d8c7": 2777,
      "g7g4": 2778,
      "b7g2g1g2": 2779,
      "d2d4g8f6c1g5": 2780,
      "d2d4g8f6c2c4g7g6b1c3f8g7e2e4d7d6": 2781,
      "h7h4": 2782,
      "c1g5d8c7": 2783,
      "f1c4h7h6": 2784,
      "b5a3": 2785,
      "a4a5b6a5": 2786,
      "a6b5a4b5": 2787,
      "f7e7f7": 2788,
      "a4a8": 2789,
      "a4a3b2b3": 2790,
      "g4e3f2e3": 2791,
      "b4a6": 2792,
      "d5e7d8e7": 2793,
      "f6e4c3e4f5e4": 2794,
      "a2a3b8d7": 2795,
      "d2d3g8e7": 2796,
      "h2h3d7d6": 2797,
      "b1d2g8e7": 2798,
      "a5a4b3b4": 2799,
      "b1g6": 2800,
      "e2e4e7e5b1c3g8f6": 2801,
      "g7g3": 2802,
      "e3h6g7h6": 2803,
      "f3e5d6e5d4e5": 2804,
      "b1d2h7h6": 2805,
      "a1c1c8b7": 2806,
      "c5c4b3c2": 2807,
      "e2e4d5e4c3e4": 2808,
      "f8e8a1e1": 2809,
      "e6a6": 2810,
      "f1e2b8c6": 2811,
      "c3d4c3": 2812,
      "c6c1": 2813,
      "c4d3c2d3": 2814,
      "f3e5d7e5f4e5": 2815,
      "c1f4b8d7": 2816,
      "a1d1d8e7": 2817,
      "f1g2f1": 2818,
      "e1c1a7a5": 2819,
      "h4h3g2g3": 2820,
      "f1e1a8c8": 2821,
      "d2d4e5d4c3d4c5b6": 2822,
      "c5d6c7d6": 2823,
      "g1h1g1": 2824,
      "h4h5g6h7": 2825,
      "c2a3": 2826,
      "b5c4d3c4": 2827,
      "f6e4f1d3": 2828,
      "d4d3e2": 2829,
      "b2g7g8g7": 2830,
      "b1d2a7a6": 2831,
      "c3d4c5d4": 2832,
      "e4d2d1d2": 2833,
      "e2e4c7c5b1c3d7d6": 2834,
      "g8f6e4f6e7f6": 2835,
      "e2e3c8b7": 2836,
      "c6d4e2d4": 2837,
      "b5c6b7": 2838,
      "f2f4e7e6g1f3": 2839,
      "a2a3b8c6": 2840,
      "f2e3f2": 2841,
      "f5f8": 2842,
      "h8f6": 2843,
      "h3g4h5g4": 2844,
      "f1e1c8e6": 2845,
      "c7h2": 2846,
      "b5e5": 2847,
      "g2g5": 2848,
      "h6c1": 2849,
      "e2e4e7e6d2d4d7d5b1c3g8f6": 2850,
      "g3g1": 2851,
      "b6a7b6": 2852,
      "b4a5b6a5": 2853,
      "b2f6g7f6": 2854,
      "c2c4f8e7": 2855,
      "g1g2f3": 2856,
      "a4f4": 2857,
      "d7d6b1c3": 2858,
      "f7f6f2f4": 2859,
      "d2c2d2": 2860,
      "d5a8": 2861,
      "g2g3c8b7": 2862,
      "e5d6d8d6": 2863,
      "d5f6g7f6": 2864,
      "d7d5c4d5e6d5": 2865,
      "g7g6c1e3f8g7": 2866,
      "c5h5": 2867,
      "a2a3g8f6": 2868,
      "d2d3c7c6": 2869,
      "d1d2b8c6": 2870,
      "g1e2b8c6": 2871,
      "e7h4g2g3": 2872,
      "a7h7": 2873,
      "e1c1d8c7": 2874,
      "g1e2g8f6": 2875,
      "d8a5c1b1": 2876,
      "a7a6b5d6": 2877,
      "d7f6g4": 2878,
      "c6d5e4d5": 2879,
      "d4f3d1f3": 2880,
      "c8c1d1c1": 2881,
      "g6g8": 2882,
      "b7b1": 2883,
      "c5b4a3b4": 2884,
      "b1d2f8g7": 2885,
      "d1e2b8d7": 2886,
      "a5b4c3": 2887,
      "f5d3f5": 2888,
      "g3c3": 2889,
      "f8f1g1f1": 2890,
      "h4h5g6h5g4h5": 2891,
      "f7d8": 2892,
      "d8d1e2d1": 2893,
      "a7a6h2h3": 2894,
      "d8d2d1d2": 2895,
      "c3a4b6c7": 2896,
      "g2g4h5g4h3g4": 2897,
      "g2g3f7f5": 2898,
      "a2a4b5b4": 2899,
      "f7f5e4f5c8f5": 2900,
      "d4a1": 2901,
      "e2e4b8d7": 2902,
      "f1e2f1": 2903,
      "e7d5e7": 2904,
      "c4g4": 2905,
      "f7e8f7": 2906,
      "b2b8": 2907,
      "h6h2": 2908,
      "f1d3h7h6": 2909,
      "a7a6b5e2": 2910,
      "f6f5e4f5": 2911,
      "g2g6": 2912,
      "f5c5": 2913,
      "b7b5c4e2": 2914,
      "b7b6g1f3c8b7": 2915,
      "f6e4d2e4d5e4": 2916,
      "e6f5e6": 2917,
      "f6e4e5": 2918,
      "f4c4": 2919,
      "b4c5d6c5": 2920,
      "f3a8": 2921,
      "b4f8": 2922,
      "g2g4g7g6": 2923,
      "f4f5g6g5": 2924,
      "f3g5h7h6g5f3": 2925,
      "a7a6c1e3": 2926,
      "a2a4e8g8": 2927,
      "a4g4": 2928,
      "c2c4g7g6": 2929,
      "e5d7f6d7": 2930,
      "e2d3e4": 2931,
      "c4b5c8d7": 2932,
      "h5c5": 2933,
      "a4e8": 2934,
      "a6f1": 2935,
      "a8c8c1b1": 2936,
      "c2c3c8b7": 2937,
      "b2b3b8d7": 2938,
      "b6c4b3": 2939,
      "h2h3e7e6": 2940,
      "f7b3": 2941,
      "f1c4e8g8": 2942,
      "d4d5c6a5": 2943,
      "e7g6f4g3": 2944,
      "c3d5e7d5": 2945,
      "d1e2f8e8": 2946,
      "g8f6d2d3f8e7": 2947,
      "c8e6e1g1": 2948,
      "e8c8e1c1": 2949,
      "f6g4h2h3g4": 2950,
      "d7d5e4e5f6d7": 2951,
      "c2c4e7e5b1c3g8f6": 2952,
      "f8d8a1d1": 2953,
      "a6b8": 2954,
      "f1e2b8d7": 2955,
      "e8c8e8": 2956,
      "d7f6f3e5": 2957,
      "d2d4g8f6c2c4c7c5d4d5": 2958,
      "f4f5g6f5g4f5": 2959,
      "e2e4d5e4d3e4": 2960,
      "b1c3f8d6": 2961,
      "f2f3e7e6": 2962,
      "f6e4d2e4": 2963,
      "c8f5e4g3f5g6": 2964,
      "e7c5d4": 2965,
      "d2f3d4": 2966,
      "g4f5g6": 2967,
      "c8f5e4f5": 2968,
      "b2b3c7c5": 2969,
      "g4h5g4f3": 2970,
      "a4a5b6b5": 2971,
      "b4f4": 2972,
      "b7d8": 2973,
      "f6d5f6": 2974,
      "a4a5a7a6": 2975,
      "f6g7h6": 2976,
      "c2a1": 2977,
      "b6g6": 2978,
      "h2h3g7g6": 2979,
      "a1d1f8d8": 2980,
      "d2d4c5d4d1d4": 2981,
      "c3d5c7c6": 2982,
      "f3d1f3": 2983,
      "g3h1": 2984,
      "g3h2g3": 2985,
      "e2g3f5g6": 2986,
      "e3d3e3": 2987,
      "g2c2": 2988,
      "b8c6g1e2": 2989,
      "f1e2f8e7e1g1e8g8": 2990,
      "d1b3a8b8": 2991,
      "d2d4g8f6c2c4e7e6b1c3d7d5": 2992,
      "a2h2": 2993,
      "a2a3b4c3": 2994,
      "e5b5": 2995,
      "c5g5": 2996,
      "e2e4c8b7": 2997,
      "c7h7": 2998,
      "e8g8b1c3": 2999,
      "b2b3g7g6": 3000,
      "d2d4g7g6g1f3f8g7": 3001,
      "f6e4d3e4d5e4": 3002,
      "h5h6g7h6": 3003,
      "e2h5g7g6": 3004,
      "d6h2g1h1": 3005,
      "e7e5d2d3": 3006,
      "f2f3g4h5": 3007,
      "b1d2c7c5": 3008,
      "f6e4g5e7d8e7": 3009,
      "c1g5c8e6": 3010,
      "c8b8c8": 3011,
      "f2f4a7a6": 3012,
      "c4b3a2b3": 3013,
      "e8c8a2a4": 3014,
      "f1e2c8g4": 3015,
      "f6e4f1e1": 3016,
      "c1f4b8c6": 3017,
      "d2d4a7a6": 3018,
      "h2h3c8f5": 3019,
      "f6h5f4g3": 3020,
      "f2e2f2": 3021,
      "g7h5": 3022,
      "f6h8": 3023,
      "h5f3g2f3": 3024,
      "e5d4d1d4": 3025,
      "c1g5g8f6": 3026,
      "e4f6d8f6": 3027,
      "c4h4": 3028,
      "c1g5d8b6": 3029,
      "b3b4a5b4a3b4": 3030,
      "g7c7": 3031,
      "a7c8": 3032,
      "g5c5": 3033,
      "g6b1": 3034,
      "e3f4e5": 3035,
      "f1e2b8c6e1g1": 3036,
      "e2e4c7c5g1f3b8c6d2d4c5d4f3d4g8f6b1c3": 3037,
      "f2f4g7g6g1f3f8g7": 3038,
      "b2b4c5a7": 3039,
      "a8c8b2b3": 3040,
      "e2e4d7d5e4d5g8f6b1c3": 3041,
      "f7f6e5f6e7f6": 3042,
      "h2h5": 3043,
      "d1d2g8h7": 3044,
      "a5a4b3c2": 3045,
      "d5c4e2c4": 3046,
      "b5b1": 3047,
      "f2f4e5e4": 3048,
      "f1c4f8b4": 3049,
      "d7d5e4d5e6d5c4b3": 3050,
      "f3e5f6e5": 3051,
      "c1e3c7c6": 3052,
      "c8a6f1e1": 3053,
      "d2d4e7e6c1f4": 3054,
      "h2h3g4f3d2f3": 3055,
      "e2e4d5c3b2c3": 3056,
      "g5f6f8f6": 3057,
      "d2d4g8f6c2c4g7g6b1c3": 3058,
      "g2g3c8g4": 3059,
      "f1e2g8f6e1g1": 3060,
      "e7f6e7": 3061,
      "f3g5e8g8": 3062,
      "f2f4e5f4c1f4": 3063,
      "f8e8h2h3": 3064,
      "c8c1f1c1": 3065,
      "g6d3d1d3": 3066,
      "e4a8": 3067,
      "c2c3g8f6e4e5f6d5": 3068,
      "b2b3a7a5": 3069,
      "c4c5d6": 3070,
      "a1e1a8e8": 3071,
      "b3b8": 3072,
      "a7f2": 3073,
      "e8a4": 3074,
      "a7a1": 3075,
      "f3e5e4f3": 3076,
      "f7f6g5e3": 3077,
      "f8c5c1e3": 3078,
      "c7c5e2e3c5d4e3d4": 3079,
      "b1c3b8c6g1f3": 3080,
      "f6d5e4d5": 3081,
      "g2g4f5h4": 3082,
      "f7f6e5f3": 3083,
      "c8g4b1d2": 3084,
      "a1b1a8b8": 3085,
      "a8e8a1e1": 3086,
      "b2b3b8c6c1b2": 3087,
      "c2h2": 3088,
      "h4h8": 3089,
      "c1f4e7e6e2e3": 3090,
      "g2b2": 3091,
      "e8e1f1e1": 3092,
      "a7a6b5c4": 3093,
      "g3b8": 3094,
      "b1d2e8g8e1g1": 3095,
      "g8e7b1c3": 3096,
      "e2e4c7c6g1f3d7d5": 3097,
      "c4c3b2c3": 3098,
      "d2d4e7e6g1f3d7d5": 3099,
      "e5d7c8d7": 3100,
      "c1c8f8c8": 3101,
      "f6a1": 3102,
      "b2b3f8e7": 3103,
      "f8e8b1d2": 3104,
      "f6d5f4g3": 3105,
      "g8f6b1c3f8b4": 3106,
      "a2a3b4a5b2b4a5b6": 3107,
      "g1f3d5e4": 3108,
      "f2f4e5c6": 3109,
      "f2f3e4": 3110,
      "f8e8a1c1": 3111,
      "g5h4g5f6": 3112,
      "g3g4h5g6": 3113,
      "e2e4a7a6": 3114,
      "f2f4e5g4": 3115,
      "f1d3f5d3d1d3e7e6": 3116,
      "c5d3c2d3": 3117,
      "d1d8c8d8": 3118,
      "h7a7": 3119,
      "a2a3e7e6": 3120,
      "g2g4b7b5": 3121,
      "c2c3b7b6": 3122,
      "f2f4c8b7": 3123,
      "f1d1f8d8": 3124,
      "c1b1c1": 3125,
      "e8f7e8": 3126,
      "a3b4a5b4": 3127,
      "e2c4g8h8": 3128,
      "d1c2a8c8": 3129,
      "a5b4a5": 3130,
      "c1c8d8c8": 3131,
      "b3b6a7b6": 3132,
      "c1d2c1": 3133,
      "e5f4e3f4": 3134,
      "e7g5f3g5": 3135,
      "e3c5b6c5": 3136,
      "c1g5d8d7": 3137,
      "e2e4e7e5f2f4": 3138,
      "f5f1": 3139,
      "b6b1": 3140,
      "a2a3h7h6": 3141,
      "f2f4e5f4e3f4": 3142,
      "e6g8": 3143,
      "b1c3d5c4": 3144,
      "f6e4d2d3": 3145,
      "f4f5e6f5g4f5": 3146,
      "e4e5f6e5": 3147,
      "f1d1a8d8": 3148,
      "f8d8f1d1": 3149,
      "e1f2e1": 3150,
      "f7f5e4f5e6f5": 3151,
      "a2a3b4c3d2c3": 3152,
      "b2b4e8g8": 3153,
      "f5f6g7g6": 3154,
      "g2g4f5e7": 3155,
      "c5d4d1d4b8c6": 3156,
      "a2a3b7b5": 3157,
      "c1f4f8d6": 3158,
      "d2f3g5": 3159,
      "a2a8": 3160,
      "f3h1": 3161,
      "f1g2c7c6": 3162,
      "e8c8b2b4": 3163,
      "d4d5c6d5c4d5": 3164,
      "d4d3c2": 3165,
      "f7f5e4e5": 3166,
      "d6d5c4d5c6d5": 3167,
      "e3f4e3": 3168,
      "f8b4c1d2b4d2": 3169,
      "d3f5g6f5": 3170,
      "b2h2": 3171,
      "f3e5g4e2d1e2": 3172,
      "b2b3b7b6": 3173,
      "a7a6b5d4": 3174,
      "d1e2e4": 3175,
      "h4f6g7f6": 3176,
      "f6d7f2f4": 3177,
      "h1g2h1": 3178,
      "h2h3b8c6": 3179,
      "b2b3a7a6": 3180,
      "d7f6d5": 3181,
      "e3d4d5": 3182,
      "h7e7": 3183,
      "h2h3f8e8": 3184,
      "f1d3e7e5": 3185,
      "b2b3c7c6": 3186,
      "f4f5e6e5": 3187,
      "f1b5b8d7": 3188,
      "f7g6f7": 3189,
      "d8e7e5": 3190,
      "b4b3c2": 3191,
      "f3e5g8f6": 3192,
      "g5g4h3h4": 3193,
      "f4e3f2e3": 3194,
      "a4b5c6": 3195,
      "a3f8": 3196,
      "d1b2": 3197,
      "f4e5c6e5": 3198,
      "d8a5d1d2": 3199,
      "f1f8g8f8": 3200,
      "b1d2b7b5": 3201,
      "c4c5d6e7": 3202,
      "e3e4f5e4": 3203,
      "a7a6b5a4b7b5a4c2": 3204,
      "b6b3a2b3": 3205,
      "h3d3": 3206,
      "e1g1b7b6": 3207,
      "c1e3c8b7": 3208,
      "f3d4c6d4": 3209,
      "c6e5f3e2": 3210,
      "d6c5g1h1": 3211,
      "a2a3b4a3": 3212,
      "b5c6b7c6e1g1": 3213,
      "d7e6d5": 3214,
      "d8b7": 3215,
      "f3g5e7g5": 3216,
      "g1e2f8g7": 3217,
      "e2e4e7e5g1f3b8c6f1b5f8c5": 3218,
      "f2d1": 3219,
      "g7d7": 3220,
      "h3c8": 3221,
      "c1e3d8c7": 3222,
      "f3h4f5g6": 3223,
      "a3g3": 3224,
      "h2h3f8d6": 3225,
      "e2f3e2": 3226,
      "b4b5c6e7": 3227,
      "f2f3e5": 3228,
      "a8a1d1a1": 3229,
      "g2g3h7h6": 3230,
      "f2f4e5d7": 3231,
      "f2f3e4f6": 3232,
      "c1f4f8e7": 3233,
      "d1e2d8e7": 3234,
      "h5h1": 3235,
      "g1f3f8c5": 3236,
      "h2h3c7c6": 3237,
      "f1d3c7c5": 3238,
      "b1d2d8c7": 3239,
      "c3h3": 3240,
      "f7f6e5g3": 3241,
      "b5b4c3b1": 3242,
      "d2d3a7a6": 3243,
      "g1e2b8d7": 3244,
      "a3f3": 3245,
      "g2g3h6h5": 3246,
      "f1e1c8b7": 3247,
      "g5g6h7g6": 3248,
      "h6g7h8": 3249,
      "d8d4d1d4": 3250,
      "h2a2": 3251,
      "b7h7": 3252,
      "e2e3f8d6": 3253,
      "e7c6d4": 3254,
      "g7e5d4e5": 3255,
      "d4e2d1e2": 3256,
      "e2e4e7e5g1f3b8c6f1c4g8f6f3g5": 3257,
      "g1g8": 3258,
      "f2f4b7b5": 3259,
      "e4e5f6e7": 3260,
      "g4f3d2f3": 3261,
      "c2c3b8c6d2d4c5d4c3d4": 3262,
      "g7b7": 3263,
      "b7a5": 3264,
      "g7g6f5": 3265,
      "f3e5f8d6": 3266,
      "f7f6e5e6": 3267,
      "b2b4c5d7": 3268,
      "e6e5f4f5": 3269,
      "f2g3f2": 3270,
      "g7e8": 3271,
      "f2f4c7c6": 3272,
      "c6b4a2a3b4": 3273,
      "e2e4d7d6d2d4g8f6b1c3g7g6": 3274,
      "e4f6d7f6": 3275,
      "d7d5c4b3": 3276,
      "b1d2d5e4d2e4": 3277,
      "c6e7c6": 3278,
      "e1e8f8e8": 3279,
      "g7h8g8g7": 3280,
      "h2h3h6h5": 3281,
      "f1e1g8e7": 3282,
      "d2d4d7d5b1c3g8f6": 3283,
      "b1c3d5a5": 3284,
      "e2e4e7e5g1f3d7d6d2d4e5d4f3d4": 3285,
      "g2d2": 3286,
      "h7h3": 3287,
      "e1g1d8c7": 3288,
      "f2f4h7h6": 3289,
      "b1d2d7d6": 3290,
      "f1e2f8d6": 3291,
      "a8d8f1d1": 3292,
      "e1a5": 3293,
      "e2e4b8c6g1f3": 3294,
      "d4d5c6c5": 3295,
      "d2d4d7d5c1f4g8f6e2e3": 3296,
      "e2e4f8e7": 3297,
      "c3d5e7e6": 3298,
      "d3c4g8h8": 3299,
      "e5f3f4e5": 3300,
      "h7b7": 3301,
      "h2h3c8b7": 3302,
      "g8e7f1d3": 3303,
      "e2e4e7e6g1f3d7d5e4d5e6d5d2d4g8f6": 3304,
      "d2d4e5d4c3d4c5b4": 3305,
      "e1c1c8d7": 3306,
      "f1f6g7f6": 3307,
      "h4c4": 3308,
      "e1g1h7h5": 3309,
      "f2f4e5f4g3f4": 3310,
      "a8c7": 3311,
      "h6h5h2h3": 3312,
      "d4e3f2e3": 3313,
      "d1d2b7b5": 3314,
      "h3h4g5h4": 3315,
      "g3g4h5g4h3g4": 3316,
      "b2a4": 3317,
      "f1b5a7a6b5c6b7c6": 3318,
      "e2e4e7e5g1f3b8c6b1c3g8f6": 3319,
      "c6b4d3b1": 3320,
      "e1g1f8e7f1e1e8g8": 3321,
      "d8d1c1d1": 3322,
      "h6g8": 3323,
      "e5e4f3e4": 3324,
      "a1b1b2a3": 3325,
      "d4c5d7c5": 3326,
      "b1c3d5c3b2c3": 3327,
      "e6f5e4": 3328,
      "g6f7g6": 3329,
      "a2a3f8d6": 3330,
      "f7f5e4g3": 3331,
      "f3g5h7h6": 3332,
      "d7e6d7": 3333,
      "e5d3c2d3": 3334,
      "g4c4": 3335,
      "b3e6f7e6": 3336,
      "d7d6e5d6f8d6": 3337,
      "b1d2c7c6": 3338,
      "a7a5b4b5": 3339,
      "d2d4c5d4e3d4": 3340,
      "f6h5f4e3": 3341,
      "a8c8c2c3": 3342,
      "d2d4e5d4e3d4": 3343,
      "c3e4d5e4": 3344,
      "d2d4c7c5d4c5": 3345,
      "h8g8f6": 3346,
      "f2f4d8c7": 3347,
      "e5e4d3e2": 3348,
      "f5f4g3g4": 3349,
      "g7g6h5h6": 3350,
      "f7f5e4g5": 3351,
      "e2e4c7c6b1c3d7d5": 3352,
      "b5b6c7": 3353,
      "a4h4": 3354,
      "h8e5": 3355,
      "g2g3a7a6": 3356,
      "g2g4f5e4": 3357,
      "d6d5c4b3": 3358,
      "d2d4c7c5d4d5d7d6": 3359,
      "g2a2": 3360,
      "f1d3c7c6": 3361,
      "e6e5d4e5f6e5": 3362,
      "f4b4": 3363,
      "b2b4c5e7": 3364,
      "a2a4b5a4": 3365,
      "d1d2h7h6": 3366,
      "b1c3f8b4c1d2": 3367,
      "g7g6f2f3": 3368,
      "a4b3a4": 3369,
      "g8f6c1g5": 3370,
      "b1d2b7b6": 3371,
      "d1d5d8d5": 3372,
      "f6d5c3d5c6d5": 3373,
      "e6g8h8": 3374,
      "b2b3f8g7": 3375,
      "h8f7": 3376,
      "d2f3f6e4": 3377,
      "c6a5c4b5": 3378,
      "f6d4g1h1": 3379,
      "g3f2g3": 3380,
      "h2h6": 3381,
      "d7e5f3e2": 3382,
      "d8a5c2c3": 3383,
      "a5e1": 3384,
      "f1e1a8e8": 3385,
      "e1c1e1": 3386,
      "e5g6f7g6": 3387,
      "f4f5e6f5e4f5": 3388,
      "d4g7g8g7": 3389,
      "h2h7": 3390,
      "f1e1a7a6": 3391,
      "f1c4c8g4": 3392,
      "f1g2e7e6": 3393,
      "c4c5b6c5": 3394,
      "a6a5b4a5": 3395,
      "h2e2": 3396,
      "h2b2": 3397,
      "g1f3g7g5": 3398,
      "e2e3c8g4": 3399,
      "f1g2c8b7": 3400,
      "d8b6c1e3": 3401,
      "e3e4d5e4f3e4": 3402,
      "h7h5g4g5": 3403,
      "f6h5f4h2": 3404,
      "g6g5h4g5h6g5": 3405,
      "a4b6a7b6": 3406,
      "g7g6h3h4": 3407,
      "b2b3a8c8": 3408,
      "e1c1c8e6": 3409,
      "a4a3b2a3": 3410,
      "d8d4g1h1": 3411,
      "e8c8c1e3": 3412,
      "c5b6a7b6": 3413,
      "c3e2c3": 3414,
      "d2d4h7h6": 3415,
      "f1d3a7a6": 3416,
      "a7a5e1g1": 3417,
      "b5b6a7b6": 3418,
      "b1c3f8g7": 3419,
      "c1f4c8g4": 3420,
      "a1c1d2": 3421,
      "a3a4b5a4": 3422,
      "e5d4e5f6": 3423,
      "f6e4d2": 3424,
      "c3e4f5e4": 3425,
      "d8d1g1h2": 3426,
      "d4e5f6e5": 3427,
      "f3a3": 3428,
      "c6d7c6": 3429,
      "f2f4g5f4": 3430,
      "f1e2d7d6": 3431,
      "a1c1c8d7": 3432,
      "d1b3e8g8": 3433,
      "c1a3f8e8": 3434,
      "f4a4": 3435,
      "b3c4b5c4": 3436,
      "b2d1": 3437,
      "c2c3c6c5": 3438,
      "d6e5f3e5": 3439,
      "e8g8e1g1b8d7": 3440,
      "h4h3g2h3": 3441,
      "f2h1": 3442,
      "c2c3b7b5": 3443,
      "f2f3f8e7": 3444,
      "f1e2b8d7e1g1": 3445,
      "d1d7d8d7": 3446,
      "c6e5f3e5g7e5": 3447,
      "d2d4d7d5e4e5": 3448,
      "f1b5c8d7b5c6d7c6": 3449,
      "f7f5e4f5f8f5": 3450,
      "e2e4g8f6e4e5f6d5d2d4d7d6": 3451,
      "h1h2g3": 3452,
      "g7g6c2c3f8g7": 3453,
      "f1e1e7e6": 3454,
      "f1e1e7f6": 3455,
      "f7f6e5d3": 3456,
      "a8c8e1g1": 3457,
      "h2h4g5g4": 3458,
      "d2d4d7d5e2e3g8f6": 3459,
      "h7h8f8e7": 3460,
      "f3e5d7d6e5f3": 3461,
      "d7c6d5": 3462,
      "b1d2c8e6": 3463,
      "a1e1a1": 3464,
      "d8a5b1c3": 3465,
      "d5f6d8f6": 3466,
      "f7f1": 3467,
      "e5f3d1f3": 3468,
      "d3c4d5": 3469,
      "e8d8d6": 3470,
      "h2c2": 3471,
      "f2f3b8d7": 3472,
      "f2f3e4g6": 3473,
      "e1c1b8c6": 3474,
      "a6a1": 3475,
      "e1g1f8c5": 3476,
      "a8d8d1e2": 3477,
      "h6h5g4h5": 3478,
      "g6h6h8g8": 3479,
      "g2h4": 3480,
      "e7e8e7": 3481,
      "g7g2": 3482,
      "a1c1a7a6": 3483,
      "f2a7": 3484,
      "e8g8g1f3": 3485,
      "f1d3d7d5": 3486,
      "a1c1b8d7": 3487,
      "g8g1": 3488,
      "a3a8": 3489,
      "g7g6g2g4": 3490,
      "f1d3b8d7e1g1": 3491,
      "h1d1h1": 3492,
      "a2a3c8b7": 3493,
      "f3e5f3": 3494,
      "f6e4f6": 3495,
      "f6d5c4d5": 3496,
      "d2b3b7b6": 3497,
      "e2e4c7c5g1f3b8c6f1c4e7e6": 3498,
      "b2b3e7e6c1b2": 3499,
      "e8e7d6": 3500,
      "g7a7": 3501,
      "b6a8": 3502,
      "f4f5e6d7": 3503,
      "d2d4d7d5g1f3c7c6": 3504,
      "h4h5g6": 3505,
      "b5b4a3a4": 3506,
      "a6g6": 3507,
      "e8g8g1e2": 3508,
      "c7c5e1g1b8c6": 3509,
      "e5a1": 3510,
      "d8b6d1d2": 3511,
      "a6f6": 3512,
      "d4d5d4": 3513,
      "e2e4f5e4": 3514,
      "f3d4c5d4": 3515,
      "f5f4e3d2": 3516,
      "d8d1c3d1": 3517,
      "f1e2c8b7": 3518,
      "f7f5f2f4": 3519,
      "f2f4e5f4f1f4": 3520,
      "h7h6h3h4": 3521,
      "b1d2f8e8": 3522,
      "c5d4e3d4b8c6": 3523,
      "f5h6g8g7": 3524,
      "f8f3g2f3": 3525,
      "b5c4b3": 3526,
      "e3g5f6": 3527,
      "b1d2c8g4": 3528,
      "a5a4b3a2": 3529,
      "e5e6f7": 3530,
      "g5e7e8e7": 3531,
      "b5c6e7c6": 3532,
      "e2e4c7c6g1f3d7d5e4d5c6d5d2d4b8c6": 3533,
      "f6a6": 3534,
      "e5h8": 3535,
      "a2a3b4c5": 3536,
      "d5e6d7e6": 3537,
      "e2e4d7d5e4d5g8f6d2d4": 3538,
      "g4g1": 3539,
      "c2c3d4d3": 3540,
      "a1c1b7b6": 3541,
      "c6d4c1e3": 3542,
      "d8b6e1g1": 3543,
      "c1b2c1": 3544,
      "d2d4g8f6b1c3d7d5": 3545,
      "f1b5c8d7b5d7d8d7": 3546,
      "d2d4d7d5c1f4g8f6": 3547,
      "f3g5f6": 3548,
      "e2c4d5": 3549,
      "c6e5c6": 3550,
      "d7e5d3e2": 3551,
      "g1f3g8f6f1d3": 3552,
      "e2e4e7e5g1f3b8c6f1c4g8f6d2d3f8c5": 3553,
      "c7c5e2e3b8c6": 3554,
      "h7c7": 3555,
      "h2h3c8d7": 3556,
      "e7e5d4c6b7c6": 3557,
      "f5f4e3f2": 3558,
      "f6g4h3g4": 3559,
      "f6f1": 3560,
      "a3b1": 3561,
      "f3e5g7e5": 3562,
      "d2b3c5b6": 3563,
      "c1g5f8e7g5f6e7f6": 3564,
      "c3d5d4": 3565,
      "g5g8": 3566,
      "f1e1f8d6": 3567,
      "c1g5h7h6g5e3": 3568,
      "a8d8d1c2": 3569,
      "d5d4c3c4": 3570,
      "d7d5e4d5c6d5c4b3": 3571,
      "e4h1": 3572,
      "f2f1f2": 3573,
      "a1a8d8a8": 3574,
      "g2g3h4h3": 3575,
      "h2h4b7b5": 3576,
      "f1d1d8e7": 3577,
      "c2c3d4c3b2c3": 3578,
      "f5f4g3f4g5f4": 3579,
      "e2e3h7h6": 3580,
      "f2f3f7f5": 3581,
      "f8e8a1d1": 3582,
      "a8c8a1d1": 3583,
      "c6c5c2c3b8c6": 3584,
      "d8g8g7": 3585,
      "g2g3f4h3": 3586,
      "b1d2d7d5": 3587,
      "f1e2c8f5": 3588,
      "h5e2d1e2": 3589,
      "h7h6g5h4g6g5h4g3": 3590,
      "f4g5h6g5": 3591,
      "a2f7": 3592,
      "h2h3e8g8e1g1": 3593,
      "e2e4e7e5f1c4b8c6": 3594,
      "c5c6b7c6": 3595,
      "b5f5": 3596,
      "f2f3e4d6": 3597,
      "g1h1e8g8": 3598,
      "e2e4e7e6d2d4d7d5b1c3f8b4": 3599,
      "e2e4e7e5d2d4e5d4c2c3d4c3": 3600,
      "g1h2h3": 3601,
      "b4c5b6": 3602,
      "a2c1": 3603,
      "d2d3b8d7": 3604,
      "d8d7g1h2": 3605,
      "e2e1e2": 3606,
      "e1e6f7e6": 3607,
      "e5d4e2d4": 3608,
      "c1f4c8f5": 3609,
      "d5d4e3e4": 3610,
      "e5e6f7f6": 3611,
      "f8c8f8": 3612,
      "g2g1f1g2": 3613,
      "b7b5c4d3c8b7": 3614,
      "e1d1d3": 3615,
      "b4h4": 3616,
      "g7g6d2d3f8g7": 3617,
      "g2g3b8d7": 3618,
      "g2g4h5g4": 3619,
      "c1b2c8b7": 3620,
      "e5d3d1d3": 3621,
      "g4g5f6e8": 3622,
      "h4f6e7f6": 3623,
      "e2e3f7f5": 3624,
      "e4e5e4": 3625,
      "b2b3d7d6": 3626,
      "f8e8d1d2": 3627,
      "b1d2c8d7": 3628,
      "a3a4a7a6": 3629,
      "f3e4f3": 3630,
      "b4b5c6a5": 3631,
      "b2b3c4b3a2b3": 3632,
      "g6c6": 3633,
      "e6e5f4g3": 3634,
      "g8h7h6": 3635,
      "e3g1h1": 3636,
      "d7d6c2c3": 3637,
      "f2f4e5c4": 3638,
      "f2f3g7g6": 3639,
      "a2a4b7b6": 3640,
      "a7a6b5a6": 3641,
      "e2e4g8f6e4e5f6d5c2c4d5b6": 3642,
      "d4d3c2d3": 3643,
      "f3f8": 3644,
      "g4b4": 3645,
      "f3e5d7": 3646,
      "e2e3e8g8f1e2": 3647,
      "b7b6a2a4": 3648,
      "a8c8a2a3": 3649,
      "c4c5b6c7": 3650,
      "f1b5c8d7b5d7b8d7": 3651,
      "b1c3g7g6g1f3f8g7": 3652,
      "f1d3g8f6e1g1": 3653,
      "h5g3f2g3": 3654,
      "f3c6b7c6": 3655,
      "f4f8": 3656,
      "b3h3": 3657,
      "b7b5c4e3": 3658,
      "d2d3c7c5": 3659,
      "g1d4": 3660,
      "g2g7": 3661,
      "e8g8e1c1": 3662,
      "c2c3b4a5": 3663,
      "a7a6a1c1": 3664,
      "c5c4d3d4": 3665,
      "a1f6": 3666,
      "g1f3d8c7": 3667,
      "d2d4d5e4": 3668,
      "d1e2c8b7": 3669,
      "b5b4c3c4": 3670,
      "b7b5c4a2c8b7": 3671,
      "d3d1d3": 3672,
      "f1e1c8d7": 3673,
      "f3g5e7": 3674,
      "d1b3d8c7": 3675,
      "a7a6b2b4": 3676,
      "g2g3c8f5": 3677,
      "e4d5f6d5": 3678,
      "e4f3e2f3": 3679,
      "e4f6f5e4": 3680,
      "b4a3b2a3": 3681,
      "f3e5d7e8": 3682,
      "c4d5e7d5": 3683,
      "d1b3d8d7": 3684,
      "g7g5h4g5h6g5": 3685,
      "f6c3b2c3": 3686,
      "c6h6": 3687,
      "e7e5d4f3": 3688,
      "a1b1e8g8": 3689,
      "f4e6f7e6": 3690,
      "b4g4": 3691,
      "h3c3": 3692,
      "c2c3a7a5": 3693,
      "c1e3h7h6": 3694,
      "d1e2g8f6": 3695,
      "c1b2b8d7": 3696,
      "c7c5d4c5d7c5": 3697,
      "e5d4g1h1": 3698,
      "c1e3c5b6": 3699,
      "d5e7g8h8": 3700,
      "e6d5c4d5d7d6": 3701,
      "f5a5": 3702,
      "c1g5f8b4": 3703,
      "g1f3b8c6f1b5": 3704,
      "d8b6d1c2": 3705,
      "c3c4b5c4": 3706,
      "c8h3g2h3": 3707,
      "a2a4a7a6a4a5": 3708,
      "f5b5": 3709,
      "g7f8d6": 3710,
      "h1e4": 3711,
      "d4d5c6b4": 3712,
      "f6g4f3": 3713,
      "f8e7e5": 3714,
      "c8a7": 3715,
      "a8f3": 3716,
      "d2d3c8g4": 3717,
      "c8d7f1d3": 3718,
      "b8g3": 3719,
      "a2a3a6a5": 3720,
      "d1e2b8c6": 3721,
      "c4b5c6b5": 3722,
      "f8f6g6": 3723,
      "g3g4g7g6": 3724,
      "c7b6g1h1": 3725,
      "e6e5d4f5": 3726,
      "c7c5d4c5d6c5": 3727,
      "d7d6d7": 3728,
      "f2f3g4e6": 3729,
      "d1e1e8g8": 3730,
      "e3e4d5e4d3e4": 3731,
      "b7b5a2a3a7a5": 3732,
      "d8d6e5": 3733,
      "g2c6b7c6": 3734,
      "c2c3c8f5": 3735,
      "f2f3h7h5": 3736,
      "e4d6c7d6": 3737,
      "d8g8h7": 3738,
      "h5a5": 3739,
      "h2h3b7b6": 3740,
      "f8e8d1c2": 3741,
      "c1g5d7d6": 3742,
      "f3f4f7f6": 3743,
      "f3f4g5f4": 3744,
      "d7f6h5": 3745,
      "f2f3e4e3": 3746,
      "e2e4c7c5g1f3a7a6": 3747,
      "f3g5h6g5": 3748,
      "d4f6g7f6": 3749,
      "g3b3": 3750,
      "b1c3d5d6": 3751,
      "f7f6g5": 3752,
      "e4f5e6f5": 3753,
      "h5f4e3f4": 3754,
      "h6d6": 3755,
      "h7d7": 3756,
      "h1f3": 3757,
      "c1e3f8b4": 3758,
      "a1d1a8c8": 3759,
      "g8f6b1c3e8g8": 3760,
      "d1a4b8c6": 3761,
      "c3c4d5d4": 3762,
      "f1d3b7b6": 3763,
      "g1e2f8e7": 3764,
      "f1d3e8g8g1e2": 3765,
      "h1g1f3": 3766,
      "c2c3f8c5": 3767,
      "d3d4e5e4": 3768,
      "b3a1": 3769,
      "f7f5g4f5": 3770,
      "d2d4e5d4d1d4": 3771,
      "g7g8f8g7": 3772,
      "f3e5c6e5e1e5": 3773,
      "d2d4f7f6": 3774,
      "h2h3a7a5": 3775,
      "f1e1a8d8": 3776,
      "c1g5b8c6": 3777,
      "d5f3g2f3": 3778,
      "c3d2c3": 3779,
      "f2f3a7a6": 3780,
      "d2d4d7d5c2c4g8f6b1c3": 3781,
      "g7b2a1b1": 3782,
      "h5h4g3h4g5h4": 3783,
      "e1e8d7e8": 3784,
      "e8d8d5": 3785,
      "f7f6e5g4": 3786,
      "c1g5c8g4": 3787,
      "c3e4f6e7": 3788,
      "e2g3g7g6": 3789,
      "e2e4c7c5g1f3b8c6d2d4c5d4f3d4e7e5d4b5": 3790,
      "f8e8f1e2": 3791,
      "d8d5d1d5": 3792,
      "d8d6d1d6": 3793,
      "c6a5c4d3": 3794,
      "g8f6e1g1e8g8": 3795,
      "h2h3e7e5": 3796,
      "h2h3b7b5": 3797,
      "f1e1d8d7": 3798,
      "e4e5f6f5": 3799,
      "b2b3c4": 3800,
      "d2d4d7d5c2c4g8f6": 3801,
      "c1d2a5c7": 3802,
      "g6g5g2g3": 3803,
      "b4b5a6a5": 3804,
      "b5b4c3d1": 3805,
      "e7e5d4e5c6e5": 3806,
      "b1c3d8c7": 3807,
      "f8e8f2f4": 3808,
      "d1d2c7c6": 3809,
      "e7f5e3f2": 3810,
      "g4a4": 3811,
      "h7h2": 3812,
      "f8e8c1e3": 3813,
      "b1d2g7g6": 3814,
      "b2b4c5d6": 3815,
      "c6d4b2d4": 3816,
      "c4b3c2b3": 3817,
      "f6f3g2f3": 3818,
      "e7g5f4": 3819,
      "g8f7e6": 3820,
      "f6e4g5f4": 3821,
      "h2h4f7f6": 3822,
      "e6e5f4e3": 3823,
      "e5f6d8f6": 3824,
      "c8c1g1h2": 3825,
      "h4g6f7g6": 3826,
      "c4c5b6c5b4c5": 3827,
      "g7a1": 3828,
      "h6g5f6": 3829,
      "f1e1e7d6": 3830,
      "g5f4e5": 3831,
      "f1e1b7b6": 3832,
      "f2f3g8f6": 3833,
      "a8c8d7": 3834,
      "d1e2a7a6": 3835,
      "h4h5g6e7": 3836,
      "e1c1c7c6": 3837,
      "d1b3d8c8": 3838,
      "e6d6e6": 3839,
      "g4g5h6g5f4g5": 3840,
      "c2c4c7c5b1c3b8c6": 3841,
      "g2g3c8b7f1g2": 3842,
      "f1f3g3": 3843,
      "e1d1d4": 3844,
      "h8h7g6": 3845,
      "f1e1f7f6": 3846,
      "b2b3h7h6": 3847,
      "b2b4a7a6a2a4": 3848,
      "f1c4a7a6": 3849,
      "c1b2b8c6": 3850,
      "f6e5d4": 3851,
      "f2f8": 3852,
      "a1c2": 3853,
      "a2a3d7d6": 3854,
      "e2d3g7g6": 3855,
      "d5d4c3d4c5d4": 3856,
      "c5c4b3c4": 3857,
      "h3h8": 3858,
      "f7f6h3h4": 3859,
      "c6a5c4b3": 3860,
      "g4g3f2g3": 3861,
      "g1f3c8g4f1e2e7e6": 3862,
      "f5g4h3g4": 3863,
      "e8e1d2e1": 3864,
      "g2g4h5f6": 3865,
      "h6g7g8": 3866,
      "g4e6g8h8": 3867,
      "a3h3": 3868,
      "e1g1c7c5": 3869,
      "b1c3d5d4c3e2": 3870,
      "b2b3c4b6": 3871,
      "d6d5c4d3": 3872,
      "a5a6b7b6": 3873,
      "f4d6f4": 3874,
      "c7c5d4c5f8c5": 3875,
      "a7a5a2a3a5b4a3b4": 3876,
      "f3g5h7h6g5e4": 3877,
      "a5a4b3a4b5a4": 3878,
      "f6d5c3d5e6d5": 3879,
      "h7h5h3h4": 3880,
      "c4c5b6d5": 3881,
      "h5h4g3h2": 3882,
      "e1e7e8e7": 3883,
      "e7e5d4e5f6g4": 3884,
      "f7g8h8": 3885,
      "g2g4f5g4h3g4": 3886,
      "g1e3": 3887,
      "e8d8c7": 3888,
      "e1g1f7f5": 3889,
      "f1e1e8c8": 3890,
      "e2d4e2": 3891,
      "c5c4d3c4": 3892,
      "c5b4c3": 3893,
      "d6e7d6": 3894,
      "f2f4g8e7": 3895,
      "f3e5f6d7": 3896,
      "f1d3f7f5": 3897,
      "f1d3b8c6e1g1": 3898,
      "f8e8f2f3": 3899,
      "d2d3f8d6": 3900,
      "e6d5d1d5": 3901,
      "f3g5g7g6": 3902,
      "g5f6e7f6c3d5": 3903,
      "f6h5f4g3h5g3h2g3": 3904,
      "f7a2": 3905,
      "b1d2c8f5": 3906,
      "c1g5d8e8": 3907,
      "f8d8d1e2": 3908,
      "e7f5d3f5e6f5": 3909,
      "c6e5f3e5f6e5": 3910,
      "g1f3d5e4f3g5": 3911,
      "d2e3d4": 3912,
      "f1e2h7h6": 3913,
      "d1d2f8e7": 3914,
      "d8e7d1e2": 3915,
      "f6g4h2h3g4f6": 3916,
      "a6b5a6": 3917,
      "f3f6g7f6": 3918,
      "d2c3d4": 3919,
      "f1c4g8f6b1c3": 3920,
      "e1c1f8e7": 3921,
      "c1d2b8d7": 3922,
      "d8a8d8": 3923,
      "h2h3d8c7": 3924,
      "h7h5f2f3": 3925,
      "h3h4h6h5": 3926,
      "b7b6c5b6a7b6": 3927,
      "f5e6d5": 3928,
      "e3d2e3": 3929,
      "c2c3d8c7": 3930,
      "f3d4f3": 3931,
      "b7e4d3e4": 3932,
      "e2e4e7e5g1f3b8c6f1c4g8f6f3g5d7d5e4d5": 3933,
      "a6a5a2a4": 3934,
      "a1e1f8e8": 3935,
      "g2f2g2": 3936,
      "e8e2e1e2": 3937,
      "b1d2e8c8": 3938,
      "d2d3d2": 3939,
      "f4f3g2g3": 3940,
      "d2d4c5d4f3d4f8g7": 3941,
      "b4c3b2c3e8g8": 3942,
      "h8d8h8": 3943,
      "c1h6f8e8": 3944,
      "c1a2": 3945,
      "e7e6b1c3": 3946,
      "g7g6h5": 3947,
      "g2g4f5e6": 3948,
      "c1b2f8g7": 3949,
      "a7a6b5d7": 3950,
      "a1a8b7a8": 3951,
      "g8e6": 3952,
      "f1e1b7b5": 3953,
      "f1d3f8e7e1g1e8g8": 3954,
      "f6e4d3": 3955,
      "c4c5d6d5": 3956,
      "h5h4g3": 3957,
      "d7c6d4": 3958,
      "f8f7e6": 3959,
      "f7f6g5f4": 3960,
      "e1c1d8e7": 3961,
      "e2e4c7c5f1c4b8c6": 3962,
      "c3c4d5b4": 3963,
      "f2f4b8c6g1f3d7d6": 3964,
      "b3c5b6": 3965,
      "a1c1c2": 3966,
      "h7h5g4h5": 3967,
      "e6e5f4e5f6e5": 3968,
      "b1c3g8f6c1g5f8e7": 3969,
      "g5e3g1h1": 3970,
      "g5g4f3d2": 3971,
      "g4g5h6g5h4g5f6": 3972,
      "c2c4d5b4": 3973,
      "e2e3e2": 3974,
      "f1e1g8f6": 3975,
      "a7a5b4a5": 3976,
      "h2h4h6h5": 3977,
      "a1d1e8g8": 3978,
      "d7e5f3e5g7e5": 3979,
      "f7f6e5f6d7f6": 3980,
      "f2f4c8g4": 3981,
      "c1g5f7f6g5e3": 3982,
      "g1f2e3": 3983,
      "d1d3e4": 3984,
      "g1f3b7b5": 3985,
      "h7h6g5f6d8f6": 3986,
      "e4d3c2d3": 3987,
      "e2e4f8b4": 3988,
      "h2h3f7f5": 3989,
      "h7h6g5f6g7f6": 3990,
      "f3e5f6e4": 3991,
      "d1e2c8e6": 3992,
      "c4b5c6": 3993,
      "e4e5d6e7": 3994,
      "c3d5e7d8": 3995,
      "d6d5c4d5": 3996,
      "h6h5h6": 3997,
      "f6g4g5f6": 3998,
      "d1a4d8d7": 3999,
      "d5c3d2c3": 4000,
      "e6e5d4e5d7e5": 4001,
      "e7e6g1f3f8e7": 4002,
      "a7a5b2b3": 4003,
      "c8f5b1c3e7e6": 4004,
      "h3h4f7f6": 4005,
      "b5b4a3b4a5b4c3": 4006,
      "e8e1g1h2": 4007,
      "c1e3c8e6": 4008,
      "a1c1c7c6": 4009,
      "a4a5b6c7": 4010,
      "f2g1h1": 4011,
      "h4a4": 4012,
      "b2b4a8c8": 4013,
      "d1c2c8b7": 4014,
      "b5b4c3e4": 4015,
      "c6c5d4c5d7c5": 4016,
      "c2c4d5f6": 4017,
      "f2f4c7c5g1f3b8c6": 4018,
      "f7f6h2h4": 4019,
      "c1f4c8b7": 4020,
      "d5c4d2c4": 4021,
      "e4f6g8g7": 4022,
      "f6g7g8g7": 4023,
      "g2h1g1g2": 4024,
      "e2e4e7e5g1f3d7d6f1c4f8e7": 4025,
      "f4e3d4": 4026,
      "a2a3b7b6": 4027,
      "f3e5d4": 4028,
      "f7f5g4g5": 4029,
      "f7f5e4c5": 4030,
      "b2b4c5e6": 4031,
      "d3d4e5d4": 4032,
      "d7e5d7": 4033,
      "g7g5g2g3": 4034,
      "c2c4c7c6b1c3d7d5": 4035,
      "d1h5g7g6h5h6": 4036,
      "d4h8": 4037,
      "d5d6c7d6": 4038,
      "h2d2": 4039,
      "f1d3b7b5": 4040,
      "f2f3b7b5": 4041,
      "a1c1f8e8": 4042,
      "a3b4a3": 4043,
      "g8e7e1g1e7g6": 4044,
      "d1d4b8c6d4d1": 4045,
      "e7f6e4": 4046,
      "g8f6d4c6b7c6": 4047,
      "c2c3d7d5e4e5": 4048,
      "f3e5c8d7": 4049,
      "d1d2c8b7": 4050,
      "d1e2d8c7": 4051,
      "e6e5d4e5c6e5": 4052,
      "b1c3g7g6e2e4f8g7": 4053,
      "g5a5": 4054,
      "c2c4a7a6": 4055,
      "g8d5": 4056,
      "g3a3": 4057,
      "f1e1b8c6": 4058,
      "f3g5g4f3": 4059,
      "g1e2d7d6": 4060,
      "a8e8a8": 4061,
      "c3b2c1b2": 4062,
      "a8d8d7": 4063,
      "d2d4g8e7": 4064,
      "h1h8g7h8": 4065,
      "h3h4g5h4g3h4": 4066,
      "c3a4b6a5": 4067,
      "d1d8c6d8": 4068,
      "e5c6d7c6": 4069,
      "f1c4d5b6c4b3": 4070,
      "c4d6c7d6": 4071,
      "e6c4d3c4": 4072,
      "b1c3c8d7": 4073,
      "g7g6f1c4f8g7": 4074,
      "g2g3b7b5": 4075,
      "c1e3f6g4": 4076,
      "e2e4e7e5g1f3b8c6f1b5d7d6": 4077,
      "e2e4e7e6d2d4d7d5e4e5c7c5c2c3b8c6g1f3d8b6": 4078,
      "c8d8d5": 4079,
      "e2e4d5d4": 4080,
      "b1d2f7f5": 4081,
      "c1d2g8f6": 4082,
      "d3d4e5d4f3d4": 4083,
      "d7d5e4d5e5e4": 4084,
      "d6h2g1h2": 4085,
      "h6h1": 4086,
      "f3e5g4f5": 4087,
      "f1d3c8d7": 4088,
      "f1e2a7a6": 4089,
      "f6e4e1e4": 4090,
      "c3d5e8g8": 4091,
      "d7c5d4c5": 4092,
      "g4f5e4": 4093,
      "a8a1f1a1": 4094,
      "g2g3g7g5": 4095
    },
    "merges": [
      [
        "d",
        "4"
      ],
      [
        "f",
        "3"
      ],
      [
        "f",
        "6"
      ],
      [
        "e",
        "4"
      ],
      [
        "d",
        "5"
      ],
      [
        "e",
        "5"
      ],
      [
        "e",
        "7"
      ],
      [
        "d",
        "7"
      ],
      [
        "e",
        "2"
      ],
      [
        "c",
        "3"
      ],
      [
        "d",
        "2"
      ],
      [
        "c",
        "6"
      ],
      [
        "g",
        "8"
      ],
      [
        "c",
        "4"
      ],
      [
        "c",
        "5"
      ],
      [
        "g",
        "1"
      ],
      [
        "f",
        "4"
      ],
      [
        "e",
        "6"
      ],
      [
        "f",
        "8"
      ],
      [
        "f",
        "1"
      ],
      [
        "d",
        "6"
      ],
      [
        "f",
        "5"
      ],
      [
        "d",
        "3"
      ],
      [
        "e",
        "3"
      ],
      [
        "g",
        "5"
      ],
      [
        "e",
        "1"
      ],
      [
        "g",
        "4"
      ],
      [
        "d",
        "8"
      ],
      [
        "d",
        "1"
      ],
      [
        "e",
        "8"
      ],
      [
        "c",
        "8"
      ],
      [
        "c",
        "1"
      ],
      [
        "c",
        "7"
      ],
      [
        "g",
        "7"
      ],
      [
        "c",
        "2"
      ],
      [
        "g",
        "6"
      ],
      [
        "b",
        "5"
      ],
      [
        "g",
        "3"
      ],
      [
        "b",
        "4"
      ],
      [
        "f",
        "2"
      ],
      [
        "f",
        "7"
      ],
      [
        "b",
        "8"
      ],
      [
        "b",
        "1"
      ],
      [
        "g",
        "2"
      ],
      [
        "b",
        "7"
      ],
      [
        "b",
        "6"
      ],
      [
        "h",
        "5"
      ],
      [
        "b",
        "3"
      ],
      [
        "h",
        "4"
      ],
      [
        "b",
        "2"
      ],
      [
        "h",
        "6"
      ],
      [
        "a",
        "5"
      ],
      [
        "h",
        "2"
      ],
      [
        "a",
        "4"
      ],
      [
        "h",
        "7"
      ],
      [
        "h",
        "3"
      ],
      [
        "a",
        "6"
      ],
      [
        "a",
        "7"
      ],
      [
        "a",
        "3"
      ],
      [
        "a",
        "8"
      ],
      [
        "a",
        "2"
      ],
      [
        "a",
        "1"
      ],
      [
        "g1",
        "f3"
      ],
      [
        "g8",
        "f6"
      ],
      [
        "d2",
        "d4"
      ],
      [
        "e1",
        "g1"
      ],
      [
        "h",
        "8"
      ],
      [
        "e8",
        "g8"
      ],
      [
        "h",
        "1"
      ],
      [
        "e2",
        "e4"
      ],
      [
        "b1",
        "c3"
      ],
      [
        "b8",
        "c6"
      ],
      [
        "e7",
        "e6"
      ],
      [
        "d7",
        "d5"
      ],
      [
        "h2",
        "h3"
      ],
      [
        "g7",
        "g6"
      ],
      [
        "c7",
        "c5"
      ],
      [
        "d7",
        "d6"
      ],
      [
        "h7",
        "h6"
      ],
      [
        "c2",
        "c3"
      ],
      [
        "c7",
        "c6"
      ],
      [
        "a7",
        "a6"
      ],
      [
        "e7",
        "e5"
      ],
      [
        "f8",
        "e7"
      ],
      [
        "c2",
        "c4"
      ],
      [
        "c5",
        "d4"
      ],
      [
        "g2",
        "g3"
      ],
      [
        "f2",
        "f4"
      ],
      [
        "e4",
        "d5"
      ],
      [
        "a2",
        "a3"
      ],
      [
        "f3",
        "e5"
      ],
      [
        "b8",
        "d7"
      ],
      [
        "e2",
        "e3"
      ],
      [
        "f1",
        "e1"
      ],
      [
        "e4",
        "e5"
      ],
      [
        "f1",
        "d3"
      ],
      [
        "e5",
        "d4"
      ],
      [
        "f7",
        "f6"
      ],
      [
        "b7",
        "b5"
      ],
      [
        "f2",
        "f3"
      ],
      [
        "b7",
        "b6"
      ],
      [
        "f8",
        "g7"
      ],
      [
        "b2",
        "b3"
      ],
      [
        "f8",
        "e8"
      ],
      [
        "c4",
        "d5"
      ],
      [
        "c1",
        "e3"
      ],
      [
        "b1",
        "d2"
      ],
      [
        "f1",
        "e2"
      ],
      [
        "f6",
        "e4"
      ],
      [
        "d2",
        "d3"
      ],
      [
        "f7",
        "f5"
      ],
      [
        "e6",
        "d5"
      ],
      [
        "c1",
        "g5"
      ],
      [
        "f3",
        "d4"
      ],
      [
        "b2",
        "b4"
      ],
      [
        "c8",
        "g4"
      ],
      [
        "c8",
        "b7"
      ],
      [
        "a2",
        "a4"
      ],
      [
        "f1",
        "c4"
      ],
      [
        "d1",
        "d2"
      ],
      [
        "f6",
        "d5"
      ],
      [
        "g2",
        "g4"
      ],
      [
        "f4",
        "e5"
      ],
      [
        "a8",
        "c8"
      ],
      [
        "d4",
        "d5"
      ],
      [
        "c8",
        "d7"
      ],
      [
        "a7",
        "a5"
      ],
      [
        "h2",
        "h4"
      ],
      [
        "c1",
        "f4"
      ],
      [
        "g5",
        "f6"
      ],
      [
        "c3",
        "d5"
      ],
      [
        "a1",
        "c1"
      ],
      [
        "d6",
        "e5"
      ],
      [
        "d8",
        "c7"
      ],
      [
        "g5",
        "h4"
      ],
      [
        "a1",
        "d1"
      ],
      [
        "h7",
        "h5"
      ],
      [
        "f8",
        "d6"
      ],
      [
        "g4",
        "f3"
      ],
      [
        "g1",
        "h1"
      ],
      [
        "d8",
        "d7"
      ],
      [
        "d1",
        "e2"
      ],
      [
        "f4",
        "f5"
      ],
      [
        "c6",
        "d4"
      ],
      [
        "f1",
        "g2"
      ],
      [
        "e7",
        "f6"
      ],
      [
        "d2d4",
        "d7d5"
      ],
      [
        "g8",
        "g7"
      ],
      [
        "f5",
        "e4"
      ],
      [
        "e3",
        "d4"
      ],
      [
        "g8",
        "h8"
      ],
      [
        "c8",
        "e6"
      ],
      [
        "h4",
        "h5"
      ],
      [
        "b4",
        "c3"
      ],
      [
        "c4",
        "b3"
      ],
      [
        "c6",
        "d5"
      ],
      [
        "c3",
        "d4"
      ],
      [
        "a8",
        "d8"
      ],
      [
        "g7",
        "f6"
      ],
      [
        "d8",
        "e7"
      ],
      [
        "e6",
        "e5"
      ],
      [
        "c3",
        "e4"
      ],
      [
        "d6",
        "d5"
      ],
      [
        "c6",
        "e5"
      ],
      [
        "c8",
        "f5"
      ],
      [
        "e2e4",
        "e7e5"
      ],
      [
        "e1",
        "c1"
      ],
      [
        "g8",
        "e7"
      ],
      [
        "g4",
        "h5"
      ],
      [
        "b7",
        "c6"
      ],
      [
        "g5",
        "f4"
      ],
      [
        "g1f3",
        "b8c6"
      ],
      [
        "h3",
        "h4"
      ],
      [
        "c1",
        "d2"
      ],
      [
        "e2e4",
        "c7c5"
      ],
      [
        "g2",
        "f3"
      ],
      [
        "b2",
        "c3"
      ],
      [
        "c4",
        "d3"
      ],
      [
        "b5",
        "c6"
      ],
      [
        "d1",
        "c2"
      ],
      [
        "a8",
        "b8"
      ],
      [
        "a5",
        "a4"
      ],
      [
        "e5",
        "e4"
      ],
      [
        "d8",
        "b6"
      ],
      [
        "e2",
        "f3"
      ],
      [
        "c1",
        "b2"
      ],
      [
        "c4",
        "c5"
      ],
      [
        "c6",
        "c5"
      ],
      [
        "d5",
        "d4"
      ],
      [
        "f3",
        "g5"
      ],
      [
        "g1",
        "g2"
      ],
      [
        "f5",
        "f4"
      ],
      [
        "f7",
        "e6"
      ],
      [
        "h6",
        "h5"
      ],
      [
        "d3",
        "e4"
      ],
      [
        "f6",
        "d7"
      ],
      [
        "a4",
        "a5"
      ],
      [
        "f1",
        "d1"
      ],
      [
        "f8",
        "d8"
      ],
      [
        "g3",
        "g4"
      ],
      [
        "f5",
        "g6"
      ],
      [
        "h5",
        "h4"
      ],
      [
        "f8",
        "c5"
      ],
      [
        "a1",
        "b1"
      ],
      [
        "a6",
        "a5"
      ],
      [
        "e8",
        "c8"
      ],
      [
        "g1",
        "h2"
      ],
      [
        "e7",
        "d6"
      ],
      [
        "f2",
        "e3"
      ],
      [
        "g4",
        "g5"
      ],
      [
        "d3",
        "d4"
      ],
      [
        "b5",
        "b4"
      ],
      [
        "d1",
        "d3"
      ],
      [
        "g6",
        "g5"
      ],
      [
        "d8",
        "d5"
      ],
      [
        "f1",
        "b5"
      ],
      [
        "f8",
        "b4"
      ],
      [
        "d2d4",
        "g8f6"
      ],
      [
        "g1",
        "e2"
      ],
      [
        "f3",
        "f4"
      ],
      [
        "g8",
        "h7"
      ],
      [
        "e3",
        "e4"
      ],
      [
        "d7",
        "e5"
      ],
      [
        "d1",
        "e1"
      ],
      [
        "e5",
        "f6"
      ],
      [
        "a1",
        "e1"
      ],
      [
        "d1",
        "f3"
      ],
      [
        "e2",
        "d3"
      ],
      [
        "c3",
        "c4"
      ],
      [
        "d8",
        "e8"
      ],
      [
        "g1",
        "f2"
      ],
      [
        "c5",
        "b6"
      ],
      [
        "f6",
        "f5"
      ],
      [
        "h5",
        "g6"
      ],
      [
        "d5",
        "e4"
      ],
      [
        "g8",
        "f8"
      ],
      [
        "g8",
        "f7"
      ],
      [
        "f4",
        "g3"
      ],
      [
        "b6",
        "b5"
      ],
      [
        "d7d5",
        "e4d5"
      ],
      [
        "b3",
        "b4"
      ],
      [
        "f6",
        "g4"
      ],
      [
        "a8",
        "e8"
      ],
      [
        "d7",
        "c6"
      ],
      [
        "e6",
        "f5"
      ],
      [
        "g7",
        "g5"
      ],
      [
        "d4",
        "e5"
      ],
      [
        "b4",
        "b5"
      ],
      [
        "g1",
        "f1"
      ],
      [
        "d2",
        "f3"
      ],
      [
        "c3",
        "e2"
      ],
      [
        "a3",
        "a4"
      ],
      [
        "d1",
        "b3"
      ],
      [
        "f3",
        "e4"
      ],
      [
        "g5",
        "g4"
      ],
      [
        "h7",
        "g6"
      ],
      [
        "f7",
        "g6"
      ],
      [
        "d1",
        "d4"
      ],
      [
        "g7",
        "h6"
      ],
      [
        "d2",
        "e4"
      ],
      [
        "d8",
        "f6"
      ],
      [
        "e1g1",
        "e8g8"
      ],
      [
        "d6",
        "c7"
      ],
      [
        "e8",
        "e7"
      ],
      [
        "g8f6",
        "b1c3"
      ],
      [
        "e3",
        "f4"
      ],
      [
        "d2d4",
        "c5d4"
      ],
      [
        "d3",
        "c2"
      ],
      [
        "f8",
        "f7"
      ],
      [
        "f6",
        "h5"
      ],
      [
        "d7",
        "c5"
      ],
      [
        "c1",
        "b1"
      ],
      [
        "d8",
        "d6"
      ],
      [
        "f6",
        "e5"
      ],
      [
        "f1",
        "f2"
      ],
      [
        "e1",
        "e2"
      ],
      [
        "c4",
        "b5"
      ],
      [
        "h2",
        "g3"
      ],
      [
        "g4",
        "f5"
      ],
      [
        "d6",
        "c5"
      ],
      [
        "c6",
        "e7"
      ],
      [
        "e8g8",
        "e1g1"
      ],
      [
        "d7",
        "f6"
      ],
      [
        "d7",
        "b6"
      ],
      [
        "f2",
        "g3"
      ],
      [
        "a6",
        "b5"
      ],
      [
        "c5",
        "c4"
      ],
      [
        "d8",
        "c8"
      ],
      [
        "e5d4",
        "e5"
      ],
      [
        "e7",
        "f5"
      ],
      [
        "e7",
        "g6"
      ],
      [
        "e2",
        "g3"
      ],
      [
        "d2",
        "c3"
      ],
      [
        "c8",
        "b8"
      ],
      [
        "g5",
        "h6"
      ],
      [
        "h8",
        "g8"
      ],
      [
        "d4",
        "c5"
      ],
      [
        "a3",
        "b4"
      ],
      [
        "d2",
        "e3"
      ],
      [
        "e5",
        "e6"
      ],
      [
        "h5",
        "h6"
      ],
      [
        "f3",
        "h4"
      ],
      [
        "g2",
        "h3"
      ],
      [
        "d1",
        "c1"
      ],
      [
        "h1",
        "g1"
      ],
      [
        "c3",
        "b5"
      ],
      [
        "b1c3",
        "g8f6"
      ],
      [
        "h4",
        "g3"
      ],
      [
        "c6",
        "a5"
      ],
      [
        "g1f3",
        "g8f6"
      ],
      [
        "f8",
        "c8"
      ],
      [
        "d5",
        "c4"
      ],
      [
        "g1f3",
        "d7d6"
      ],
      [
        "d8",
        "a5"
      ],
      [
        "e2e4",
        "e7e6"
      ],
      [
        "b3",
        "c2"
      ],
      [
        "d3",
        "e2"
      ],
      [
        "e5",
        "f4"
      ],
      [
        "d6",
        "e7"
      ],
      [
        "a4",
        "a3"
      ],
      [
        "e2e4e7e5",
        "g1f3b8c6"
      ],
      [
        "c5",
        "b4"
      ],
      [
        "g4",
        "h3"
      ],
      [
        "g5",
        "g6"
      ],
      [
        "e4",
        "f3"
      ],
      [
        "d7",
        "e6"
      ],
      [
        "f5",
        "f6"
      ],
      [
        "e4",
        "e3"
      ],
      [
        "d2",
        "c4"
      ],
      [
        "b6",
        "c7"
      ],
      [
        "a5",
        "a6"
      ],
      [
        "b5",
        "a4"
      ],
      [
        "c6",
        "b4"
      ],
      [
        "c6",
        "b7c6"
      ],
      [
        "a5",
        "b4"
      ],
      [
        "e8",
        "f8"
      ],
      [
        "f3",
        "g3"
      ],
      [
        "g4",
        "g3"
      ],
      [
        "f4",
        "e3"
      ],
      [
        "c8",
        "c7"
      ],
      [
        "f5",
        "e6"
      ],
      [
        "h4",
        "h3"
      ],
      [
        "e2",
        "f4"
      ],
      [
        "f3",
        "d2"
      ],
      [
        "a1",
        "f1"
      ],
      [
        "e2e4",
        "c7c6"
      ],
      [
        "c1",
        "c2"
      ],
      [
        "d5",
        "d6"
      ],
      [
        "d4",
        "d3"
      ],
      [
        "e1",
        "f1"
      ],
      [
        "g1f3",
        "e7e6"
      ],
      [
        "f4",
        "f3"
      ],
      [
        "d2",
        "b3"
      ],
      [
        "d7",
        "c7"
      ],
      [
        "c4",
        "c3"
      ],
      [
        "e4d5",
        "e4"
      ],
      [
        "h7h6",
        "g5"
      ],
      [
        "a8",
        "f8"
      ],
      [
        "e4",
        "f6"
      ],
      [
        "f1",
        "c1"
      ],
      [
        "e8",
        "d8"
      ],
      [
        "e4",
        "f5"
      ],
      [
        "e1",
        "d1"
      ],
      [
        "d4",
        "c3"
      ],
      [
        "a2",
        "b3"
      ],
      [
        "e2",
        "d2"
      ],
      [
        "a4",
        "b3"
      ],
      [
        "h6",
        "g7"
      ],
      [
        "e7",
        "d7"
      ],
      [
        "e7",
        "c5"
      ],
      [
        "e5",
        "d6"
      ],
      [
        "h1",
        "h2"
      ],
      [
        "c3",
        "a4"
      ],
      [
        "d2d4",
        "e5d4"
      ],
      [
        "a5",
        "b6"
      ],
      [
        "d2d4c5d4",
        "f3d4"
      ],
      [
        "d3",
        "d2"
      ],
      [
        "b5",
        "b6"
      ],
      [
        "d1",
        "d5"
      ],
      [
        "b4",
        "b3"
      ],
      [
        "d3",
        "c4"
      ],
      [
        "e3",
        "d2"
      ],
      [
        "c2",
        "b3"
      ],
      [
        "g3",
        "f4"
      ],
      [
        "f6",
        "g6"
      ],
      [
        "f7",
        "e7"
      ],
      [
        "e1",
        "e3"
      ],
      [
        "a4",
        "b5"
      ],
      [
        "f8",
        "g8"
      ],
      [
        "c6",
        "c7"
      ],
      [
        "d6",
        "d7"
      ],
      [
        "e8",
        "f7"
      ],
      [
        "e8",
        "d7"
      ],
      [
        "e2",
        "d4"
      ],
      [
        "h7",
        "h8"
      ],
      [
        "c5",
        "c6"
      ],
      [
        "c7",
        "b6"
      ],
      [
        "h7h6",
        "g5h4"
      ],
      [
        "b7",
        "a6"
      ],
      [
        "e7",
        "g5"
      ],
      [
        "a6",
        "a7"
      ],
      [
        "d8",
        "d4"
      ],
      [
        "e7",
        "d5"
      ],
      [
        "f1",
        "f3"
      ],
      [
        "e5",
        "f3"
      ],
      [
        "f4",
        "g5"
      ],
      [
        "a2a3",
        "b4"
      ],
      [
        "a3",
        "a2"
      ],
      [
        "g3",
        "h4"
      ],
      [
        "f2",
        "e2"
      ],
      [
        "f1",
        "g1"
      ],
      [
        "c5",
        "d6"
      ],
      [
        "c2c4",
        "e7e6"
      ],
      [
        "g6",
        "h5"
      ],
      [
        "g6",
        "f5"
      ],
      [
        "e3",
        "f2"
      ],
      [
        "d2",
        "c2"
      ],
      [
        "c3",
        "c2"
      ],
      [
        "e6",
        "f7e6"
      ],
      [
        "e3",
        "e2"
      ],
      [
        "h2h3",
        "g4h5"
      ],
      [
        "b2",
        "a3"
      ],
      [
        "f6",
        "e7"
      ],
      [
        "d1",
        "h5"
      ],
      [
        "a7",
        "b6"
      ],
      [
        "f3",
        "e2"
      ],
      [
        "b4c3",
        "b2c3"
      ],
      [
        "h8",
        "h7"
      ],
      [
        "g7",
        "f8"
      ],
      [
        "e6",
        "e7"
      ],
      [
        "h6",
        "h7"
      ],
      [
        "h6",
        "g5"
      ],
      [
        "f6",
        "g5"
      ],
      [
        "h2h3",
        "g4"
      ],
      [
        "c8",
        "a6"
      ],
      [
        "f7",
        "g7"
      ],
      [
        "g1f3",
        "d7d5"
      ],
      [
        "h2",
        "h1"
      ],
      [
        "e3",
        "d3"
      ],
      [
        "f3",
        "e3"
      ],
      [
        "e2",
        "c4"
      ],
      [
        "b6",
        "b7"
      ],
      [
        "e6",
        "d7"
      ],
      [
        "c3",
        "b2c3"
      ],
      [
        "c5d4",
        "c3d4"
      ],
      [
        "d1",
        "a4"
      ],
      [
        "f5",
        "g4"
      ],
      [
        "e4",
        "d3"
      ],
      [
        "f3",
        "g4"
      ],
      [
        "b4",
        "c5"
      ],
      [
        "b7",
        "d5"
      ],
      [
        "e7",
        "f8"
      ],
      [
        "a7a6",
        "b5"
      ],
      [
        "e1",
        "d2"
      ],
      [
        "e4",
        "d6"
      ],
      [
        "c4d5",
        "e6d5"
      ],
      [
        "f5",
        "d3"
      ],
      [
        "b8c6",
        "g1f3"
      ],
      [
        "a8",
        "a7"
      ],
      [
        "f6",
        "f7"
      ],
      [
        "f3",
        "f2"
      ],
      [
        "e6",
        "f7"
      ],
      [
        "f6",
        "e6"
      ],
      [
        "e1",
        "f2"
      ],
      [
        "f6",
        "g7"
      ],
      [
        "e1",
        "e4"
      ],
      [
        "c2",
        "d3"
      ],
      [
        "d4",
        "e3"
      ],
      [
        "b3",
        "b2"
      ],
      [
        "d8",
        "h4"
      ],
      [
        "d2",
        "e2"
      ],
      [
        "d8",
        "d1"
      ],
      [
        "h8",
        "g7"
      ],
      [
        "e8",
        "e6"
      ],
      [
        "e2e4",
        "d7d6"
      ],
      [
        "e5",
        "d3"
      ],
      [
        "e3",
        "c5"
      ],
      [
        "g6",
        "g7"
      ],
      [
        "h3",
        "h2"
      ],
      [
        "g2",
        "f2"
      ],
      [
        "b5",
        "c4"
      ],
      [
        "f4",
        "d6"
      ],
      [
        "b7",
        "b8"
      ],
      [
        "h3",
        "g4"
      ],
      [
        "b5c6",
        "b7c6"
      ],
      [
        "e2",
        "g4"
      ],
      [
        "d7",
        "f8"
      ],
      [
        "g7",
        "g8"
      ],
      [
        "g3",
        "g2"
      ],
      [
        "e5",
        "g6"
      ],
      [
        "e3",
        "g5"
      ],
      [
        "e5",
        "c4"
      ],
      [
        "d1",
        "g4"
      ],
      [
        "d2d4",
        "e7e6"
      ],
      [
        "e2e4",
        "d7d5e4d5"
      ],
      [
        "e6",
        "d6"
      ],
      [
        "f8",
        "f6"
      ],
      [
        "d7",
        "e7"
      ],
      [
        "c1",
        "d1"
      ],
      [
        "b2",
        "b1"
      ],
      [
        "g3",
        "f2"
      ],
      [
        "d5",
        "e6"
      ],
      [
        "d5",
        "c6"
      ],
      [
        "e2",
        "f2"
      ],
      [
        "e1",
        "e5"
      ],
      [
        "e4",
        "c5"
      ],
      [
        "e7",
        "f7"
      ],
      [
        "c8",
        "d8"
      ],
      [
        "c7",
        "b7"
      ],
      [
        "c7c5",
        "c2c3"
      ],
      [
        "g2",
        "g1"
      ],
      [
        "d2",
        "f1"
      ],
      [
        "d1",
        "d6"
      ],
      [
        "e4",
        "g3"
      ],
      [
        "g5",
        "e7"
      ],
      [
        "a1",
        "a2"
      ],
      [
        "g7",
        "e5"
      ],
      [
        "g6",
        "f7"
      ],
      [
        "e3",
        "f2e3"
      ],
      [
        "h2",
        "g1"
      ],
      [
        "d3",
        "f5"
      ],
      [
        "h1",
        "e1"
      ],
      [
        "e1g1",
        "f8e7"
      ],
      [
        "h7",
        "g8"
      ],
      [
        "d3",
        "c3"
      ],
      [
        "b8",
        "a6"
      ],
      [
        "c7",
        "d7"
      ],
      [
        "b3",
        "a4"
      ],
      [
        "d8",
        "g5"
      ],
      [
        "e8",
        "e5"
      ],
      [
        "d1",
        "d7"
      ],
      [
        "f6",
        "e8"
      ],
      [
        "e3",
        "f3"
      ],
      [
        "h1",
        "g2"
      ],
      [
        "d4",
        "f5"
      ],
      [
        "d2",
        "f4"
      ],
      [
        "g3",
        "f3"
      ],
      [
        "g2",
        "f1"
      ],
      [
        "d4",
        "f3"
      ],
      [
        "h8",
        "e8"
      ],
      [
        "e4",
        "g5"
      ],
      [
        "b6",
        "d5"
      ],
      [
        "d3",
        "g6"
      ],
      [
        "h7",
        "g7"
      ],
      [
        "c2",
        "d2"
      ],
      [
        "c2",
        "b2"
      ],
      [
        "d3",
        "b5"
      ],
      [
        "c6",
        "b5"
      ],
      [
        "e5",
        "d7"
      ],
      [
        "c7",
        "d6"
      ],
      [
        "b5",
        "b4c3"
      ],
      [
        "d3",
        "e3"
      ],
      [
        "f8",
        "b8"
      ],
      [
        "g7",
        "f7"
      ],
      [
        "a7",
        "a8"
      ],
      [
        "d6",
        "f4"
      ],
      [
        "h3",
        "g2"
      ],
      [
        "e7",
        "h4"
      ],
      [
        "e2e4c7c5",
        "g1f3b8c6"
      ],
      [
        "e5",
        "g4"
      ],
      [
        "d8",
        "d2"
      ],
      [
        "d5",
        "f4"
      ],
      [
        "g8f6",
        "d2d3"
      ],
      [
        "d6c7",
        "d6"
      ],
      [
        "f3",
        "h2"
      ],
      [
        "d1",
        "d8"
      ],
      [
        "h2h3",
        "g4f3"
      ],
      [
        "a2",
        "a1"
      ],
      [
        "b1",
        "b2"
      ],
      [
        "e2e4e7e6",
        "d2d4d7d5"
      ],
      [
        "c2c4",
        "c7c6"
      ],
      [
        "c1g5",
        "f8e7"
      ],
      [
        "c4d5",
        "c6d5"
      ],
      [
        "b1",
        "a3"
      ],
      [
        "d7",
        "e8"
      ],
      [
        "h2",
        "g2"
      ],
      [
        "h5",
        "f4"
      ],
      [
        "f7",
        "f8"
      ],
      [
        "h8",
        "f8"
      ],
      [
        "b6",
        "a5"
      ],
      [
        "b8",
        "c8"
      ],
      [
        "f2",
        "g2"
      ],
      [
        "h5",
        "g4"
      ],
      [
        "d6",
        "c6"
      ],
      [
        "g6",
        "f6"
      ],
      [
        "c6",
        "c5d4"
      ],
      [
        "g3",
        "f5"
      ],
      [
        "c7",
        "c8"
      ],
      [
        "c3",
        "b4"
      ],
      [
        "d7",
        "b5"
      ],
      [
        "c1",
        "a3"
      ],
      [
        "g3",
        "h3"
      ],
      [
        "c5d4",
        "e3d4"
      ],
      [
        "f6",
        "g7f6"
      ],
      [
        "f1",
        "b1"
      ],
      [
        "b1c3",
        "e7e6"
      ],
      [
        "c8",
        "c2"
      ],
      [
        "e4",
        "d4"
      ],
      [
        "b8",
        "a8"
      ],
      [
        "c5",
        "c4d3"
      ],
      [
        "b6",
        "c4"
      ],
      [
        "e6",
        "f6"
      ],
      [
        "e5",
        "c6"
      ],
      [
        "e7e5",
        "d4e5"
      ],
      [
        "d1",
        "f1"
      ],
      [
        "d8",
        "f8"
      ],
      [
        "e2e4c7c6",
        "d2d4d7d5"
      ],
      [
        "e7",
        "b4"
      ],
      [
        "e2",
        "f1"
      ],
      [
        "b1",
        "c1"
      ],
      [
        "b8",
        "b7"
      ],
      [
        "b1c3",
        "b8c6"
      ],
      [
        "b7",
        "c8"
      ],
      [
        "b3",
        "d5"
      ],
      [
        "d6",
        "e6"
      ],
      [
        "e3",
        "h6"
      ],
      [
        "f5g6",
        "f5"
      ],
      [
        "e7",
        "d8"
      ],
      [
        "c2",
        "c1"
      ],
      [
        "g8",
        "h6"
      ],
      [
        "b7",
        "e4"
      ],
      [
        "a5",
        "c4"
      ],
      [
        "b1",
        "a1"
      ],
      [
        "c1",
        "c7"
      ],
      [
        "e2",
        "h5"
      ],
      [
        "g6",
        "h6"
      ],
      [
        "f3",
        "g2"
      ],
      [
        "g6",
        "f4"
      ],
      [
        "e4e5",
        "f6d5"
      ],
      [
        "e2e4e7e5g1f3b8c6",
        "f1c4"
      ],
      [
        "c6",
        "d7"
      ],
      [
        "e5",
        "d5"
      ],
      [
        "h4",
        "g5"
      ],
      [
        "e2e4c7c5",
        "g1f3d7d6"
      ],
      [
        "b4",
        "a5"
      ],
      [
        "e7",
        "e8"
      ],
      [
        "f2",
        "f1"
      ],
      [
        "e1g1",
        "g8f6"
      ],
      [
        "b6",
        "d4"
      ],
      [
        "e1",
        "e8"
      ],
      [
        "g1f3",
        "c8g4"
      ],
      [
        "g4",
        "h4"
      ],
      [
        "g7",
        "d4"
      ],
      [
        "c5",
        "e4"
      ],
      [
        "f3",
        "g2f3"
      ],
      [
        "g5",
        "e3"
      ],
      [
        "d7",
        "f5"
      ],
      [
        "b6",
        "c5"
      ],
      [
        "h1",
        "f1"
      ],
      [
        "d3c2",
        "d3"
      ],
      [
        "e1",
        "e7"
      ],
      [
        "c8",
        "c6"
      ],
      [
        "b1c3",
        "d5"
      ],
      [
        "f6",
        "h7"
      ],
      [
        "e8",
        "e4"
      ],
      [
        "d8",
        "b8"
      ],
      [
        "b2",
        "d4"
      ],
      [
        "f4",
        "g4"
      ],
      [
        "c3",
        "c4d5"
      ],
      [
        "g5f6",
        "e7f6"
      ],
      [
        "c2",
        "e4"
      ],
      [
        "a5",
        "c7"
      ],
      [
        "b6",
        "c6"
      ],
      [
        "c3",
        "b3"
      ],
      [
        "c4b3",
        "c4"
      ],
      [
        "e7",
        "c6"
      ],
      [
        "g4",
        "g5f6"
      ],
      [
        "b7",
        "a7"
      ],
      [
        "c8",
        "c4"
      ],
      [
        "d7d5",
        "e4e5"
      ],
      [
        "h1",
        "d1"
      ],
      [
        "b2",
        "a2"
      ],
      [
        "d8",
        "d3"
      ],
      [
        "g7g6",
        "b1c3"
      ],
      [
        "g5",
        "h5"
      ],
      [
        "f7",
        "e8"
      ],
      [
        "f6",
        "d4"
      ],
      [
        "h3",
        "g3"
      ],
      [
        "e6",
        "e5d4"
      ],
      [
        "f8",
        "f5"
      ],
      [
        "c4",
        "e2"
      ],
      [
        "e2",
        "b5"
      ],
      [
        "g7",
        "h7"
      ],
      [
        "g7",
        "g5h4"
      ],
      [
        "d2",
        "b4"
      ],
      [
        "g5",
        "f5"
      ],
      [
        "f1",
        "f4"
      ],
      [
        "d2d4",
        "d7d6"
      ],
      [
        "c1",
        "c3"
      ],
      [
        "a4",
        "c5"
      ],
      [
        "d1",
        "b1"
      ],
      [
        "d6",
        "g3"
      ],
      [
        "d4",
        "c6"
      ],
      [
        "c5",
        "d3"
      ],
      [
        "d7",
        "d8"
      ],
      [
        "g4",
        "e6"
      ],
      [
        "g4",
        "e2"
      ],
      [
        "c7",
        "e5"
      ],
      [
        "d4",
        "b5"
      ],
      [
        "g5",
        "e6"
      ],
      [
        "h8",
        "d8"
      ],
      [
        "c4",
        "e3"
      ],
      [
        "f4",
        "e4"
      ],
      [
        "g5f6",
        "g7f6"
      ],
      [
        "b3",
        "c5"
      ],
      [
        "d2",
        "d1"
      ],
      [
        "g4h3",
        "g4"
      ],
      [
        "g5h6",
        "g5"
      ],
      [
        "c4",
        "d6"
      ],
      [
        "f7",
        "g8"
      ],
      [
        "e4d5",
        "e6d5"
      ],
      [
        "g1f3",
        "f8g7"
      ],
      [
        "b6",
        "a6"
      ],
      [
        "e4e5",
        "d6e5"
      ],
      [
        "c4d3",
        "c4"
      ],
      [
        "c3",
        "d3"
      ],
      [
        "c2c3",
        "g8f6"
      ],
      [
        "d5",
        "e3"
      ],
      [
        "d2",
        "g5"
      ],
      [
        "e1",
        "e6"
      ],
      [
        "f5",
        "e5"
      ],
      [
        "c4",
        "e5"
      ],
      [
        "e2",
        "e1"
      ],
      [
        "f3",
        "d5"
      ],
      [
        "a7a6",
        "a2a4"
      ],
      [
        "d4",
        "e6"
      ],
      [
        "h5",
        "g3"
      ],
      [
        "h6",
        "g6"
      ],
      [
        "c3",
        "d2"
      ],
      [
        "d4",
        "b3"
      ],
      [
        "g2",
        "h2"
      ],
      [
        "d7",
        "c8"
      ],
      [
        "d2d4g8f6",
        "c2c4"
      ],
      [
        "e8g8",
        "f1d3"
      ],
      [
        "g4",
        "f4"
      ],
      [
        "c5",
        "e6"
      ],
      [
        "e4",
        "c3"
      ],
      [
        "e8",
        "e2"
      ],
      [
        "c7",
        "e7"
      ],
      [
        "b8d7",
        "e1g1"
      ],
      [
        "h4",
        "f5"
      ],
      [
        "b3",
        "c4"
      ],
      [
        "g4",
        "e3"
      ],
      [
        "c5b6",
        "c5"
      ],
      [
        "b7",
        "c7"
      ],
      [
        "e8",
        "e1"
      ],
      [
        "c2",
        "e2"
      ],
      [
        "g6",
        "h7"
      ],
      [
        "g2g4",
        "f5"
      ],
      [
        "b1c3",
        "d7d6"
      ],
      [
        "e4",
        "f4"
      ],
      [
        "d2",
        "e1"
      ],
      [
        "f1c4",
        "e7e6"
      ],
      [
        "c2",
        "b1"
      ],
      [
        "d2",
        "c1"
      ],
      [
        "c5",
        "d5"
      ],
      [
        "c4d5",
        "f6d5"
      ],
      [
        "e2",
        "c3"
      ],
      [
        "c5d4",
        "f3d4"
      ],
      [
        "e2e4d7d5e4d5",
        "d8d5"
      ],
      [
        "b8c6",
        "e1g1"
      ],
      [
        "c8",
        "c1"
      ],
      [
        "c6",
        "b6"
      ],
      [
        "c6",
        "d6"
      ],
      [
        "b5",
        "d7"
      ],
      [
        "b3",
        "a3"
      ],
      [
        "b2",
        "c2"
      ],
      [
        "d5",
        "f6"
      ],
      [
        "c1",
        "h6"
      ],
      [
        "f5e4",
        "f5"
      ],
      [
        "g1f3",
        "g7g6"
      ],
      [
        "g7",
        "g5f4"
      ],
      [
        "c7",
        "b8"
      ],
      [
        "c4",
        "a2"
      ],
      [
        "e5",
        "f5"
      ],
      [
        "f2",
        "e1"
      ],
      [
        "d4",
        "c6b7c6"
      ],
      [
        "h5",
        "g5"
      ],
      [
        "d6",
        "b4"
      ],
      [
        "g8f6",
        "e1g1"
      ],
      [
        "f8e7",
        "e1g1e8g8"
      ],
      [
        "d1",
        "g1"
      ],
      [
        "f3",
        "e1"
      ],
      [
        "d3",
        "b1"
      ],
      [
        "c3",
        "b2"
      ],
      [
        "e6",
        "c4"
      ],
      [
        "e2e3",
        "g8f6"
      ],
      [
        "a4",
        "c2"
      ],
      [
        "g3",
        "e5"
      ],
      [
        "d2d4",
        "c7c6"
      ],
      [
        "d4",
        "c4"
      ],
      [
        "h5",
        "f6"
      ],
      [
        "g2",
        "e4"
      ],
      [
        "g7g6",
        "g1f3f8g7"
      ],
      [
        "c5",
        "e7"
      ],
      [
        "a6",
        "b7"
      ],
      [
        "d4",
        "e2"
      ],
      [
        "b1c3",
        "c7c6"
      ],
      [
        "b8",
        "b2"
      ],
      [
        "c7c5",
        "d4d5"
      ],
      [
        "d5",
        "b6"
      ],
      [
        "a4b5",
        "a6b5"
      ],
      [
        "g7g6b1c3",
        "f8g7"
      ],
      [
        "g3",
        "e4"
      ],
      [
        "h4",
        "g4"
      ],
      [
        "c6e5",
        "f3e5"
      ],
      [
        "e2",
        "d1"
      ],
      [
        "d5",
        "e7"
      ],
      [
        "c6",
        "b7"
      ],
      [
        "b3",
        "c3"
      ],
      [
        "f1b5",
        "c8d7"
      ],
      [
        "c6d4",
        "f3d4"
      ],
      [
        "c4",
        "f7"
      ],
      [
        "b1c3",
        "f8b4"
      ],
      [
        "e4d5",
        "c6d5"
      ],
      [
        "f5",
        "g5"
      ],
      [
        "d7d5e4d5",
        "e6d5"
      ],
      [
        "f2f4",
        "e5f4"
      ],
      [
        "d5",
        "e5"
      ],
      [
        "g3",
        "h2"
      ],
      [
        "g7",
        "h8"
      ],
      [
        "h4",
        "g6"
      ],
      [
        "b8c6",
        "c2c3"
      ],
      [
        "b2",
        "c1"
      ],
      [
        "a8",
        "a6"
      ],
      [
        "c3d5",
        "f6d5"
      ],
      [
        "c2c4",
        "g8f6b1c3"
      ],
      [
        "f2",
        "g1"
      ],
      [
        "e2e3",
        "e7e6"
      ],
      [
        "e1g1",
        "b8d7"
      ],
      [
        "d4",
        "e4"
      ],
      [
        "c4",
        "b4"
      ],
      [
        "c8",
        "c3"
      ],
      [
        "a5b4",
        "a3b4"
      ],
      [
        "c7",
        "d8"
      ],
      [
        "g6",
        "e5"
      ],
      [
        "e4",
        "d2"
      ],
      [
        "b5",
        "d6"
      ],
      [
        "f1e1",
        "e8g8"
      ],
      [
        "c8",
        "c5"
      ],
      [
        "d5",
        "c5"
      ],
      [
        "b1c3",
        "e8g8"
      ],
      [
        "b2",
        "e5"
      ],
      [
        "d2",
        "f2"
      ],
      [
        "b4",
        "b5c6"
      ],
      [
        "b1d2",
        "e8g8"
      ],
      [
        "f4e5",
        "f4"
      ],
      [
        "a7a6",
        "b5a4"
      ],
      [
        "f8",
        "h8"
      ],
      [
        "g4",
        "e5"
      ],
      [
        "g5h4",
        "g5"
      ],
      [
        "c4",
        "e6"
      ],
      [
        "b1",
        "b7"
      ],
      [
        "f5",
        "d4"
      ],
      [
        "c8",
        "e8"
      ],
      [
        "g7",
        "g8g7"
      ],
      [
        "b3",
        "d4"
      ],
      [
        "g6",
        "e4"
      ],
      [
        "b1c3",
        "d7d5"
      ],
      [
        "h4",
        "e7"
      ],
      [
        "g2",
        "d5"
      ],
      [
        "d7",
        "g4"
      ],
      [
        "e2e4e7e5g1f3b8c6",
        "f1b5"
      ],
      [
        "f4",
        "d3"
      ],
      [
        "d6",
        "e5d4e5"
      ],
      [
        "c5",
        "b5"
      ],
      [
        "c1",
        "e1"
      ],
      [
        "g1f3",
        "c7c5"
      ],
      [
        "h5",
        "f3"
      ],
      [
        "e3",
        "g3"
      ],
      [
        "b1c3",
        "a7a6"
      ],
      [
        "c1",
        "c8"
      ],
      [
        "d8",
        "g8"
      ],
      [
        "a1",
        "a3"
      ],
      [
        "c4",
        "d4"
      ],
      [
        "b3",
        "a2b3"
      ],
      [
        "e3",
        "b6"
      ],
      [
        "d2d4e5d4",
        "f3d4"
      ],
      [
        "d2",
        "h6"
      ],
      [
        "d5e4",
        "c3e4"
      ],
      [
        "f1",
        "f5"
      ],
      [
        "f4",
        "d5"
      ],
      [
        "g5",
        "g4f3"
      ],
      [
        "a3",
        "b2"
      ],
      [
        "e6",
        "g4"
      ],
      [
        "g4f3",
        "g2f3"
      ],
      [
        "b5",
        "d3"
      ],
      [
        "c5",
        "e3"
      ],
      [
        "b6",
        "b2"
      ],
      [
        "f1",
        "g3"
      ],
      [
        "h4",
        "f6"
      ],
      [
        "a1",
        "a7"
      ],
      [
        "d5",
        "b4"
      ],
      [
        "f4",
        "h6"
      ],
      [
        "g5",
        "e4"
      ],
      [
        "a8",
        "a2"
      ],
      [
        "b1",
        "a2"
      ],
      [
        "f4",
        "e6"
      ],
      [
        "f3",
        "h3"
      ],
      [
        "e7e5",
        "d4d5"
      ],
      [
        "a5",
        "b5"
      ],
      [
        "e8g8",
        "b1d2"
      ],
      [
        "g1f3",
        "c7c6"
      ],
      [
        "f5",
        "e3"
      ],
      [
        "h2",
        "g4"
      ],
      [
        "c1",
        "c5"
      ],
      [
        "a4",
        "b4"
      ],
      [
        "b7b5",
        "c4b3"
      ],
      [
        "b1",
        "c2"
      ],
      [
        "f5",
        "d6"
      ],
      [
        "e2e4",
        "g7g6"
      ],
      [
        "b7",
        "a8"
      ],
      [
        "f1",
        "f7"
      ],
      [
        "d2d4c5d4f3d4",
        "g8f6b1c3"
      ],
      [
        "b8",
        "a7"
      ],
      [
        "d5",
        "c3"
      ],
      [
        "e2",
        "c2"
      ],
      [
        "h6",
        "f5"
      ],
      [
        "c8g4",
        "f1e2"
      ],
      [
        "c3d5",
        "e6d5"
      ],
      [
        "f8",
        "f4"
      ],
      [
        "g6",
        "g5h4"
      ],
      [
        "e5",
        "f7"
      ],
      [
        "g5",
        "f7"
      ],
      [
        "b8",
        "d8"
      ],
      [
        "e8",
        "e3"
      ],
      [
        "b6",
        "d7"
      ],
      [
        "a8",
        "g8"
      ],
      [
        "h2h3",
        "e8g8"
      ],
      [
        "g6",
        "g5f4"
      ],
      [
        "b4",
        "a3"
      ],
      [
        "d2d4c5d4",
        "c3d4"
      ],
      [
        "c1",
        "c6"
      ],
      [
        "g3",
        "h5"
      ],
      [
        "f3e5",
        "c6e5"
      ],
      [
        "c3",
        "d1"
      ],
      [
        "c2",
        "d1"
      ],
      [
        "e1g1",
        "b8c6"
      ],
      [
        "b4",
        "d3"
      ],
      [
        "e6",
        "e5d4e5"
      ],
      [
        "g4h5",
        "g4"
      ],
      [
        "h4",
        "f3"
      ],
      [
        "e7",
        "c7"
      ],
      [
        "b4",
        "d2"
      ],
      [
        "f6e4",
        "d3e4"
      ],
      [
        "a1",
        "g1"
      ],
      [
        "d2d4",
        "f8g7"
      ],
      [
        "b8",
        "e8"
      ],
      [
        "f7f5",
        "e4f5"
      ],
      [
        "d4d5",
        "e6d5"
      ],
      [
        "b5b4",
        "a3b4"
      ],
      [
        "d7d5e4d5",
        "c6d5"
      ],
      [
        "c5",
        "d7"
      ],
      [
        "a6",
        "c7"
      ],
      [
        "a7",
        "b7"
      ],
      [
        "c6",
        "e4"
      ],
      [
        "c1g5",
        "h7h6g5h4"
      ],
      [
        "c6",
        "d8"
      ],
      [
        "g1",
        "h3"
      ],
      [
        "e2e4c7c5",
        "g1f3e7e6"
      ],
      [
        "e3",
        "f5"
      ],
      [
        "f3",
        "h5"
      ],
      [
        "e8g8",
        "f1e2"
      ],
      [
        "a2",
        "b2"
      ],
      [
        "b4",
        "a4"
      ],
      [
        "g2g4",
        "h5g6"
      ],
      [
        "f8",
        "a8"
      ],
      [
        "f8",
        "g6"
      ],
      [
        "c1",
        "c4"
      ],
      [
        "a2",
        "b1"
      ],
      [
        "c7c5",
        "d4c5"
      ],
      [
        "e3",
        "e4d5e4"
      ],
      [
        "f4g3",
        "f4"
      ],
      [
        "d3",
        "h7"
      ],
      [
        "c2",
        "f5"
      ],
      [
        "d7",
        "f7"
      ],
      [
        "c5",
        "f2"
      ],
      [
        "a5",
        "c6"
      ],
      [
        "b8",
        "b6"
      ],
      [
        "d2d4d7d5",
        "c1f4"
      ],
      [
        "h2h4",
        "h7h5"
      ],
      [
        "c8",
        "h3"
      ],
      [
        "c5d4",
        "c5"
      ],
      [
        "c2c4",
        "d7d5"
      ],
      [
        "d2",
        "b2"
      ],
      [
        "f5d3",
        "d1d3"
      ],
      [
        "c7",
        "a5"
      ],
      [
        "e1",
        "b1"
      ],
      [
        "c8",
        "a8"
      ],
      [
        "g2",
        "h1"
      ],
      [
        "d7",
        "b7"
      ],
      [
        "b5",
        "a6"
      ],
      [
        "d8",
        "a8"
      ],
      [
        "e3",
        "d5"
      ],
      [
        "d3",
        "f3"
      ],
      [
        "e4e5",
        "f6d7"
      ],
      [
        "f1",
        "h1"
      ],
      [
        "b4",
        "d6"
      ],
      [
        "d2d4g8f6",
        "c2c4e7e6"
      ],
      [
        "c5",
        "a7"
      ],
      [
        "f8",
        "f2"
      ],
      [
        "f7f6",
        "e5f6"
      ],
      [
        "b1",
        "d1"
      ],
      [
        "g7g5h4",
        "g3"
      ],
      [
        "d2d3",
        "g8f6"
      ],
      [
        "g2g3",
        "g8f6"
      ],
      [
        "b8",
        "c7"
      ],
      [
        "b3",
        "b7"
      ],
      [
        "e5",
        "g3"
      ],
      [
        "c2c4",
        "d5c4"
      ],
      [
        "g4",
        "f6"
      ],
      [
        "c5",
        "c4b3"
      ],
      [
        "c6d4",
        "e3d4"
      ],
      [
        "f8",
        "h6"
      ],
      [
        "b6",
        "b4"
      ],
      [
        "d5",
        "c7"
      ],
      [
        "d3",
        "a6"
      ],
      [
        "a3",
        "c2"
      ],
      [
        "d2d4d7d5",
        "c2c4e7e6"
      ],
      [
        "d6",
        "f5"
      ],
      [
        "h5",
        "e2"
      ],
      [
        "c4d5",
        "c4"
      ],
      [
        "c8g4",
        "h2h3g4h5"
      ],
      [
        "c2",
        "a4"
      ],
      [
        "e4",
        "f2"
      ],
      [
        "b5",
        "a5"
      ],
      [
        "d2d4",
        "g7g6"
      ],
      [
        "f6e4",
        "c3e4"
      ],
      [
        "a3",
        "b3"
      ],
      [
        "g5",
        "f3"
      ],
      [
        "d7",
        "a4"
      ],
      [
        "b1c3",
        "g7g6"
      ],
      [
        "b6",
        "a7"
      ],
      [
        "f4",
        "d2"
      ],
      [
        "b6",
        "d8"
      ],
      [
        "c2c4",
        "e7e5"
      ],
      [
        "d1",
        "a1"
      ],
      [
        "e6",
        "d4"
      ],
      [
        "g3",
        "e2"
      ],
      [
        "e8g8",
        "h2h3"
      ],
      [
        "e1g1",
        "g8e7"
      ],
      [
        "b3",
        "a2"
      ],
      [
        "f1",
        "f6"
      ],
      [
        "f4e5",
        "d6e5"
      ],
      [
        "f4",
        "g6"
      ],
      [
        "e7e6",
        "g1f3"
      ],
      [
        "e1g1",
        "e7e6"
      ],
      [
        "h6g7",
        "g8g7"
      ],
      [
        "f1",
        "a1"
      ],
      [
        "b5c6",
        "d7c6"
      ],
      [
        "f6",
        "h4"
      ],
      [
        "f8b4",
        "c1d2"
      ],
      [
        "h7",
        "g5"
      ],
      [
        "f5",
        "e7"
      ],
      [
        "b5c6",
        "b5"
      ],
      [
        "d5e4",
        "d3e4"
      ],
      [
        "a6",
        "b6"
      ],
      [
        "h2h3g4f3",
        "d1f3"
      ],
      [
        "d4",
        "c2"
      ],
      [
        "d8e8",
        "d8"
      ],
      [
        "c7",
        "a7"
      ],
      [
        "b7",
        "f3"
      ],
      [
        "c7",
        "f4"
      ],
      [
        "c2c3",
        "d4c3"
      ],
      [
        "e4",
        "g6"
      ],
      [
        "a3",
        "c4"
      ],
      [
        "a4",
        "b6"
      ],
      [
        "b1",
        "b3"
      ],
      [
        "a6",
        "c5"
      ],
      [
        "f8",
        "e6"
      ],
      [
        "e1g1",
        "f8d6"
      ],
      [
        "d2",
        "d5"
      ],
      [
        "g2",
        "g1g2"
      ],
      [
        "c1",
        "a1"
      ],
      [
        "b4",
        "e7"
      ],
      [
        "b4",
        "c4"
      ],
      [
        "e1",
        "g3"
      ],
      [
        "d2d4",
        "b8c6"
      ],
      [
        "g6",
        "e7"
      ],
      [
        "c8",
        "f8"
      ],
      [
        "g8f6",
        "g1f3"
      ],
      [
        "g2g3g8f6",
        "f1g2"
      ],
      [
        "g4",
        "f2"
      ],
      [
        "d1e1",
        "d1"
      ],
      [
        "e6",
        "h3"
      ],
      [
        "f7f5",
        "e4"
      ],
      [
        "a2a1",
        "q"
      ],
      [
        "b7b5",
        "a2a3"
      ],
      [
        "d7",
        "h3"
      ],
      [
        "b2",
        "a1"
      ],
      [
        "g3",
        "g4h5"
      ],
      [
        "b1",
        "e1"
      ],
      [
        "e6",
        "g6"
      ],
      [
        "g4f3",
        "e2f3"
      ],
      [
        "b5",
        "c7"
      ],
      [
        "e6",
        "f4"
      ],
      [
        "e2",
        "e5"
      ],
      [
        "d1",
        "h1"
      ],
      [
        "d4",
        "d2"
      ],
      [
        "d7",
        "e5d4e5"
      ],
      [
        "a8",
        "a5"
      ],
      [
        "g8f6",
        "e2e3"
      ],
      [
        "d3",
        "f4"
      ],
      [
        "d6",
        "e4"
      ],
      [
        "c2c3",
        "b8c6"
      ],
      [
        "g4f3",
        "g4"
      ],
      [
        "f4f5",
        "e6f5"
      ],
      [
        "a7a8",
        "q"
      ],
      [
        "b4b5",
        "a6b5"
      ],
      [
        "b5",
        "c5"
      ],
      [
        "a1",
        "a4"
      ],
      [
        "e2e4d7d5e4d5d8d5",
        "b1c3d5"
      ],
      [
        "f1",
        "e3"
      ],
      [
        "e1g1",
        "d7d6"
      ],
      [
        "c2",
        "a2"
      ],
      [
        "h8",
        "h6"
      ],
      [
        "e5f6",
        "e5"
      ],
      [
        "e3",
        "a7"
      ],
      [
        "d7e5",
        "f3e5"
      ],
      [
        "b4c3",
        "b4"
      ],
      [
        "g5",
        "d2"
      ],
      [
        "a8",
        "h8"
      ],
      [
        "f4",
        "e2"
      ],
      [
        "h1",
        "h3"
      ],
      [
        "c1g5",
        "e8g8"
      ],
      [
        "c6",
        "b8"
      ],
      [
        "f1",
        "h3"
      ],
      [
        "c4b5",
        "c4"
      ],
      [
        "d8",
        "h8"
      ],
      [
        "c4",
        "b6"
      ],
      [
        "f5",
        "h6"
      ],
      [
        "d2d4g8f6",
        "c1f4"
      ],
      [
        "a1",
        "a6"
      ],
      [
        "g4g5",
        "h6"
      ],
      [
        "a8",
        "a3"
      ],
      [
        "h5g6",
        "h7g6"
      ],
      [
        "c2",
        "f2"
      ],
      [
        "c3",
        "e5"
      ],
      [
        "a5",
        "c5"
      ],
      [
        "f5",
        "g3"
      ],
      [
        "c2",
        "g6"
      ],
      [
        "e2e3",
        "d7d5"
      ],
      [
        "e1g1",
        "f8g7"
      ],
      [
        "f4",
        "c7"
      ],
      [
        "e2e4e7e5",
        "g1f3d7d6"
      ],
      [
        "a7",
        "b8"
      ],
      [
        "c7",
        "f7"
      ],
      [
        "g2g3",
        "d7d5"
      ],
      [
        "f4",
        "h3"
      ],
      [
        "e2e4",
        "g8f6"
      ],
      [
        "g6",
        "h4"
      ],
      [
        "c4",
        "d2"
      ],
      [
        "g6",
        "d3"
      ],
      [
        "a4",
        "c3"
      ],
      [
        "f5",
        "d7"
      ],
      [
        "h5",
        "f7"
      ],
      [
        "f2f4",
        "e5"
      ],
      [
        "g5f6",
        "g5"
      ],
      [
        "a1",
        "h1"
      ],
      [
        "f6",
        "h6"
      ],
      [
        "c2",
        "e3"
      ],
      [
        "h4",
        "f2"
      ],
      [
        "e8",
        "b8"
      ],
      [
        "a7a5",
        "a2a3"
      ],
      [
        "a5",
        "c3"
      ],
      [
        "c6d4",
        "d1d4"
      ],
      [
        "e2e4e7e5",
        "f1c4"
      ],
      [
        "c1",
        "f1"
      ],
      [
        "h8",
        "c8"
      ],
      [
        "e8",
        "g6"
      ],
      [
        "f3",
        "f5"
      ],
      [
        "f6",
        "b2"
      ],
      [
        "f1e2",
        "e8g8e1g1"
      ],
      [
        "b3",
        "d2"
      ],
      [
        "d2d4d7d5",
        "c2c4c7c6"
      ],
      [
        "f3",
        "f4e5"
      ],
      [
        "g5f6",
        "d8f6"
      ],
      [
        "d3",
        "g3"
      ],
      [
        "a6",
        "c4"
      ],
      [
        "d6",
        "b6"
      ],
      [
        "f6",
        "f4"
      ],
      [
        "f1d3",
        "g8f6"
      ],
      [
        "d3",
        "b3"
      ],
      [
        "b8",
        "b4"
      ],
      [
        "d3",
        "e5"
      ],
      [
        "f8",
        "g8f8"
      ],
      [
        "e7",
        "a3"
      ],
      [
        "e2e4c7c5g1f3d7d6",
        "d2d4c5d4f3d4g8f6b1c3"
      ],
      [
        "b8c6",
        "a2a3"
      ],
      [
        "f5",
        "c2"
      ],
      [
        "b4",
        "d5"
      ],
      [
        "b5",
        "d4"
      ],
      [
        "g4",
        "d7"
      ],
      [
        "g1f3",
        "b8d7"
      ],
      [
        "a7a5",
        "a2a4"
      ],
      [
        "f4",
        "h2"
      ],
      [
        "d4e5",
        "d6e5"
      ],
      [
        "d6",
        "f6"
      ],
      [
        "d3",
        "c5"
      ],
      [
        "c7",
        "e6"
      ],
      [
        "e7",
        "e4"
      ],
      [
        "e2e4c7c5g1f3b8c6",
        "d2d4c5d4f3d4"
      ],
      [
        "e2e4e7e5g1f3b8c6f1c4",
        "f8c5"
      ],
      [
        "e3",
        "e4d5"
      ],
      [
        "b3",
        "e6"
      ],
      [
        "a2a4",
        "a7a6"
      ],
      [
        "f4",
        "h5"
      ],
      [
        "b7b5",
        "a4b3"
      ],
      [
        "d2",
        "a5"
      ],
      [
        "c2c3",
        "d7d6"
      ],
      [
        "d6e5",
        "f4e5"
      ],
      [
        "f7f6",
        "e5"
      ],
      [
        "f8",
        "f1"
      ],
      [
        "d4",
        "b6"
      ],
      [
        "c7",
        "d5"
      ],
      [
        "d6",
        "b8"
      ],
      [
        "d7e5",
        "f4e5"
      ],
      [
        "g5f4",
        "g5"
      ],
      [
        "f1d3",
        "e8g8e1g1"
      ],
      [
        "f3",
        "b7"
      ],
      [
        "g5e7",
        "d8e7"
      ],
      [
        "d3",
        "d5"
      ],
      [
        "d4",
        "d1"
      ],
      [
        "c2c3",
        "e7e6"
      ],
      [
        "f5",
        "h4"
      ],
      [
        "h7h6g5",
        "f3"
      ],
      [
        "h3",
        "f4"
      ],
      [
        "e3",
        "g4"
      ],
      [
        "c2c4",
        "g8f6"
      ],
      [
        "f6d5",
        "c3d5"
      ],
      [
        "f5",
        "h3"
      ],
      [
        "e2",
        "a6"
      ],
      [
        "h8",
        "h5"
      ],
      [
        "f8",
        "f3"
      ],
      [
        "h2h3",
        "h7h6"
      ],
      [
        "h2h4",
        "h7h6"
      ],
      [
        "a4",
        "c6"
      ],
      [
        "f6",
        "g8"
      ],
      [
        "d6",
        "c4"
      ],
      [
        "d4",
        "f2"
      ],
      [
        "c1e3",
        "g8f6"
      ],
      [
        "a7a6",
        "a2a3"
      ],
      [
        "g3",
        "d6"
      ],
      [
        "b7b8",
        "q"
      ],
      [
        "b5",
        "e2"
      ],
      [
        "c7c6",
        "d5"
      ],
      [
        "a8",
        "a4"
      ],
      [
        "b5",
        "c3"
      ],
      [
        "g8",
        "g6"
      ],
      [
        "e8",
        "d6"
      ],
      [
        "g1f3",
        "g8f6b1c3"
      ],
      [
        "h7h8",
        "q"
      ],
      [
        "g7",
        "b2"
      ],
      [
        "d7",
        "f6e4"
      ],
      [
        "c4",
        "e6f7e6"
      ],
      [
        "b6",
        "e3"
      ],
      [
        "d4",
        "f6"
      ],
      [
        "h6",
        "f4"
      ],
      [
        "f3",
        "d3"
      ],
      [
        "f6d7",
        "f6"
      ],
      [
        "c7c5",
        "e2e3"
      ],
      [
        "d2d4e5d4",
        "c3d4"
      ],
      [
        "f1d3",
        "f5d3d1d3"
      ],
      [
        "h5g6",
        "f7g6"
      ],
      [
        "h1",
        "c1"
      ],
      [
        "e5d4",
        "c3d4"
      ],
      [
        "c4d5",
        "d8d5"
      ],
      [
        "c7",
        "c4"
      ],
      [
        "g2g3",
        "g7g6"
      ],
      [
        "f1d3",
        "e8g8"
      ],
      [
        "c8g4",
        "f2f3"
      ],
      [
        "d5",
        "d7"
      ],
      [
        "b4",
        "c2"
      ],
      [
        "a5",
        "a2"
      ],
      [
        "e3",
        "e5"
      ],
      [
        "a4",
        "c4"
      ],
      [
        "b2b1",
        "q"
      ],
      [
        "a5",
        "b3"
      ],
      [
        "b8",
        "b5"
      ],
      [
        "e2",
        "e6"
      ],
      [
        "b1c3",
        "d5e4c3e4"
      ],
      [
        "h6",
        "f7"
      ],
      [
        "f2f4",
        "d7d6"
      ],
      [
        "d6d5",
        "e4d5"
      ],
      [
        "c7c5c2c3",
        "b8c6"
      ],
      [
        "b1",
        "b4"
      ],
      [
        "e7",
        "b7"
      ],
      [
        "e1g1",
        "h7h6"
      ],
      [
        "c2c3",
        "e8g8"
      ],
      [
        "a6",
        "b4"
      ],
      [
        "c3",
        "a3"
      ],
      [
        "h5",
        "h3"
      ],
      [
        "a1",
        "a5"
      ],
      [
        "f3",
        "c6"
      ],
      [
        "f4",
        "h4"
      ],
      [
        "b6",
        "d6"
      ],
      [
        "e1",
        "a1"
      ],
      [
        "e2",
        "b2"
      ],
      [
        "g5g4",
        "h3"
      ],
      [
        "d6",
        "h2"
      ],
      [
        "f4d6",
        "d8d6"
      ],
      [
        "d6",
        "e5d4"
      ],
      [
        "c1e3",
        "e8g8"
      ],
      [
        "h6",
        "e3"
      ],
      [
        "d5",
        "c3b2c3"
      ],
      [
        "c7",
        "g3"
      ],
      [
        "c6",
        "a7"
      ],
      [
        "d7",
        "d4"
      ],
      [
        "a3",
        "c5"
      ],
      [
        "c1g5",
        "h7h6"
      ],
      [
        "c5b4",
        "c5"
      ],
      [
        "b1c3",
        "f8e7"
      ],
      [
        "g1f3",
        "f8e7"
      ],
      [
        "e4",
        "g4"
      ],
      [
        "a2a4",
        "a7a5"
      ],
      [
        "b3",
        "b5"
      ],
      [
        "b2",
        "f6"
      ],
      [
        "e3",
        "c4"
      ],
      [
        "g1",
        "g3"
      ],
      [
        "f2",
        "d4"
      ],
      [
        "e1",
        "h1"
      ],
      [
        "b3",
        "d1"
      ],
      [
        "a1c1",
        "a8c8"
      ],
      [
        "e1g1",
        "c8b7"
      ],
      [
        "d6",
        "d4"
      ],
      [
        "e8",
        "a8"
      ],
      [
        "e2e4c7c6d2d4d7d5",
        "e4e5"
      ],
      [
        "e7e5d4e5",
        "d6e5"
      ],
      [
        "d3",
        "f1"
      ],
      [
        "c3e4",
        "f6e4"
      ],
      [
        "a5",
        "a3"
      ],
      [
        "c2c4",
        "f8g7"
      ],
      [
        "e3",
        "c1"
      ],
      [
        "e8",
        "f6"
      ],
      [
        "e6",
        "c5"
      ],
      [
        "b4",
        "c6"
      ],
      [
        "d3",
        "e4d5e4"
      ],
      [
        "e7e6",
        "e2e3"
      ],
      [
        "f1e1",
        "f8e8"
      ],
      [
        "a8c8",
        "a1c1"
      ],
      [
        "a6",
        "d3"
      ],
      [
        "e4",
        "e2"
      ],
      [
        "g7",
        "c3"
      ],
      [
        "g5",
        "g3"
      ],
      [
        "b5",
        "b7"
      ],
      [
        "h4",
        "f4"
      ],
      [
        "f1c4",
        "g8f6"
      ],
      [
        "a2a3b4",
        "a5"
      ],
      [
        "a8",
        "a1"
      ],
      [
        "e5d4",
        "e3d4"
      ],
      [
        "c5",
        "b3"
      ],
      [
        "c2",
        "d4"
      ],
      [
        "a2a3",
        "a7a5"
      ],
      [
        "c5",
        "c7"
      ],
      [
        "c5d4",
        "d1d4"
      ],
      [
        "e7",
        "c8"
      ],
      [
        "e6",
        "a2"
      ],
      [
        "c6",
        "a6"
      ],
      [
        "h7h6g5",
        "e3"
      ],
      [
        "d7",
        "a7"
      ],
      [
        "f5",
        "h5"
      ],
      [
        "h4",
        "h6"
      ],
      [
        "e4",
        "c2"
      ],
      [
        "e4e5d6e5",
        "f4e5"
      ],
      [
        "d6",
        "d8"
      ],
      [
        "c6c5d4",
        "c5"
      ],
      [
        "c3",
        "e3"
      ],
      [
        "a7",
        "c7"
      ],
      [
        "e8g8",
        "c1e3"
      ],
      [
        "e2e4",
        "d5e4"
      ],
      [
        "g1f3c8g4",
        "f1e2"
      ],
      [
        "g2g4",
        "h5"
      ],
      [
        "b3",
        "b6"
      ],
      [
        "e7",
        "g7"
      ],
      [
        "c5",
        "a4"
      ],
      [
        "b4c3",
        "d2c3"
      ],
      [
        "c2c4",
        "c7c5"
      ],
      [
        "e2e4",
        "b8c6"
      ],
      [
        "b3",
        "d3"
      ],
      [
        "h2h1",
        "q"
      ],
      [
        "d4d5",
        "c6d5"
      ],
      [
        "e8",
        "h8"
      ],
      [
        "f6e5",
        "f4e5"
      ],
      [
        "b4",
        "b2"
      ],
      [
        "e6d5",
        "c4d5"
      ],
      [
        "c4b5",
        "a6b5"
      ],
      [
        "e1",
        "h4"
      ],
      [
        "c1g5",
        "f7f6"
      ],
      [
        "b8",
        "f8"
      ],
      [
        "d2d3",
        "d7d6"
      ],
      [
        "d1h5",
        "g7g6"
      ],
      [
        "e2e4",
        "b7b6"
      ],
      [
        "e6",
        "g5"
      ],
      [
        "e2e4g7g6",
        "d2d4f8g7"
      ],
      [
        "h5",
        "f5"
      ],
      [
        "f2",
        "h4"
      ],
      [
        "a4",
        "a2"
      ],
      [
        "e2e4e7e6d2d4d7d5",
        "e4e5"
      ],
      [
        "a7a6",
        "e1g1"
      ],
      [
        "f2",
        "d2"
      ],
      [
        "b3c2",
        "b3"
      ],
      [
        "d4",
        "b2"
      ],
      [
        "d5",
        "f7"
      ],
      [
        "f6",
        "c3"
      ],
      [
        "f3e5",
        "b8d7"
      ],
      [
        "b8",
        "b3"
      ],
      [
        "c6",
        "e5d4e5"
      ],
      [
        "d6",
        "f7"
      ],
      [
        "c1g5",
        "b8d7"
      ],
      [
        "d1",
        "d8e8d8"
      ],
      [
        "g4",
        "g6"
      ],
      [
        "e2",
        "g2"
      ],
      [
        "b8",
        "b1"
      ],
      [
        "e5",
        "g5"
      ],
      [
        "b7",
        "d7"
      ],
      [
        "a2",
        "c2"
      ],
      [
        "e2e4c7c5",
        "d2d4c5d4"
      ],
      [
        "d6e5",
        "d6"
      ],
      [
        "e4",
        "c6"
      ],
      [
        "f3",
        "f6"
      ],
      [
        "b1",
        "b6"
      ],
      [
        "c5c4d3",
        "c2"
      ],
      [
        "e2",
        "c1"
      ],
      [
        "a5",
        "d8"
      ],
      [
        "g8e7",
        "e1g1"
      ],
      [
        "g1f3",
        "f8d6"
      ],
      [
        "b1d2",
        "g8f6"
      ],
      [
        "h8",
        "h4"
      ],
      [
        "c2c1",
        "q"
      ],
      [
        "h6",
        "g4"
      ],
      [
        "b1",
        "b5"
      ],
      [
        "g2g3d7d5",
        "f1g2"
      ],
      [
        "e1",
        "d3"
      ],
      [
        "d7d5",
        "e2e3"
      ],
      [
        "h4h5",
        "g6h5"
      ],
      [
        "a3",
        "b5"
      ],
      [
        "b8c6",
        "c1e3"
      ],
      [
        "b1c3",
        "b8d7"
      ],
      [
        "b1d2",
        "b8d7"
      ],
      [
        "f6",
        "f5e4"
      ],
      [
        "c4",
        "a5"
      ],
      [
        "b1",
        "f1"
      ],
      [
        "e4f6",
        "e7f6"
      ],
      [
        "e2e4c7c6d2d4d7d5",
        "e4d5c6d5"
      ],
      [
        "e8",
        "c7"
      ],
      [
        "a8",
        "b7"
      ],
      [
        "b8c6",
        "f1g2"
      ],
      [
        "e4",
        "b7"
      ],
      [
        "c2c4",
        "d5"
      ],
      [
        "d2",
        "a2"
      ],
      [
        "d1",
        "e3"
      ],
      [
        "d4",
        "f4"
      ],
      [
        "c4",
        "c2"
      ],
      [
        "c6",
        "e6"
      ],
      [
        "c4",
        "b2"
      ],
      [
        "f8e8",
        "f1e1"
      ],
      [
        "d7d6",
        "e1g1"
      ],
      [
        "c6",
        "a4"
      ],
      [
        "f1g2",
        "f8g7"
      ],
      [
        "c7c8",
        "q"
      ],
      [
        "h7h6",
        "h2h3"
      ],
      [
        "e6d5",
        "e6"
      ],
      [
        "g1f3",
        "e8g8"
      ],
      [
        "a1",
        "b2"
      ],
      [
        "h1",
        "h4"
      ],
      [
        "a2a3",
        "a7a6"
      ],
      [
        "e1g1",
        "h2"
      ],
      [
        "g7g8",
        "q"
      ],
      [
        "h2",
        "f3"
      ],
      [
        "a4",
        "a6"
      ],
      [
        "f2f3",
        "e4f3"
      ],
      [
        "a4",
        "a7"
      ],
      [
        "g7g6",
        "e1g1f8g7"
      ],
      [
        "c3",
        "c1"
      ],
      [
        "c5",
        "a6"
      ],
      [
        "e2e4d7d6",
        "d2d4g8f6"
      ],
      [
        "g3",
        "e3"
      ],
      [
        "f3",
        "d1"
      ],
      [
        "f6",
        "d8"
      ],
      [
        "c7",
        "c2"
      ],
      [
        "h1",
        "h5"
      ],
      [
        "a5",
        "a7"
      ],
      [
        "h3",
        "f2"
      ],
      [
        "d6",
        "a3"
      ],
      [
        "a2a3",
        "b4c3b2c3"
      ],
      [
        "h3",
        "e6"
      ],
      [
        "g1f3",
        "c8b7"
      ],
      [
        "g2",
        "b7"
      ],
      [
        "c4",
        "a6"
      ],
      [
        "b8c6",
        "b1c3"
      ],
      [
        "f7",
        "d7"
      ],
      [
        "h1",
        "h7"
      ],
      [
        "d8",
        "d1e1d1"
      ],
      [
        "g1f3",
        "a7a6"
      ],
      [
        "d6",
        "f8"
      ],
      [
        "a5",
        "b7"
      ],
      [
        "e6",
        "c8"
      ],
      [
        "h5",
        "h7"
      ],
      [
        "d3g6",
        "h7g6"
      ],
      [
        "e2e4e7e6d2d4d7d5",
        "e4d5e6d5"
      ],
      [
        "d5",
        "b3"
      ],
      [
        "f1e1",
        "f8e7"
      ],
      [
        "e4",
        "c3b2c3"
      ],
      [
        "d5",
        "b7"
      ],
      [
        "b6",
        "f2"
      ],
      [
        "h5",
        "g7"
      ],
      [
        "d7d5e4d5",
        "d8d5"
      ],
      [
        "d5",
        "f3"
      ],
      [
        "f8e8",
        "e1g1"
      ],
      [
        "f7f5",
        "e5f6"
      ],
      [
        "e5",
        "c7"
      ],
      [
        "f4",
        "f2"
      ],
      [
        "g1f3",
        "b7b6"
      ],
      [
        "e2e4",
        "d7d5"
      ],
      [
        "f6",
        "d6"
      ],
      [
        "c5",
        "b7"
      ],
      [
        "h3",
        "f5"
      ],
      [
        "h2h3g4",
        "f6"
      ],
      [
        "a1",
        "a8"
      ],
      [
        "b2b4",
        "c5b6"
      ],
      [
        "a4b3",
        "a2b3"
      ],
      [
        "g1f3",
        "c8f5"
      ],
      [
        "h2h3g4f3",
        "e2f3"
      ],
      [
        "h1",
        "h6"
      ],
      [
        "d3",
        "d1"
      ],
      [
        "h8",
        "h3"
      ],
      [
        "e5e6",
        "f7e6"
      ],
      [
        "c8",
        "f5e4"
      ],
      [
        "c7",
        "c3"
      ],
      [
        "b1",
        "b8"
      ],
      [
        "d2",
        "d6"
      ],
      [
        "b2b4",
        "c5b4"
      ],
      [
        "d8b6",
        "g1h1"
      ],
      [
        "e3",
        "c3"
      ],
      [
        "f3",
        "f7"
      ],
      [
        "g4",
        "h6"
      ],
      [
        "e5",
        "e7"
      ],
      [
        "c6",
        "e8"
      ],
      [
        "e6",
        "e8"
      ],
      [
        "h8",
        "b8"
      ],
      [
        "f4e5",
        "f6e5"
      ],
      [
        "f7",
        "d5"
      ],
      [
        "f2f4",
        "d7d5"
      ],
      [
        "d8b6",
        "b2b3"
      ],
      [
        "c4",
        "a3"
      ],
      [
        "e3",
        "e1"
      ],
      [
        "c2",
        "c7"
      ],
      [
        "e8g8",
        "h7"
      ],
      [
        "g2g1",
        "q"
      ],
      [
        "b2",
        "d2"
      ],
      [
        "g3",
        "g5"
      ],
      [
        "g3",
        "g6"
      ],
      [
        "g2g3",
        "f8g7"
      ],
      [
        "f5e4",
        "f3e4"
      ],
      [
        "d2d4",
        "b7b6"
      ],
      [
        "d1d2",
        "e8g8"
      ],
      [
        "c3d5",
        "c6d5"
      ],
      [
        "h7h5",
        "h2h3"
      ],
      [
        "a6",
        "a8"
      ],
      [
        "h3",
        "g5"
      ],
      [
        "a2",
        "d5"
      ],
      [
        "d2d4d7d5",
        "g1f3g8f6"
      ],
      [
        "a4",
        "b2"
      ],
      [
        "c6",
        "c4"
      ],
      [
        "e8",
        "h5"
      ],
      [
        "d2d4",
        "e7e5d4e5"
      ],
      [
        "e4",
        "e6"
      ],
      [
        "d6g3",
        "h2g3"
      ],
      [
        "h7",
        "f6"
      ],
      [
        "c3",
        "a2"
      ],
      [
        "d6",
        "b5"
      ],
      [
        "f5",
        "f7"
      ],
      [
        "f5e4",
        "d3e4"
      ],
      [
        "c6",
        "c8"
      ],
      [
        "b3",
        "f7"
      ],
      [
        "g1f3",
        "h7h6"
      ],
      [
        "d4d5",
        "c6e5"
      ],
      [
        "f5g6",
        "h7g6"
      ],
      [
        "f6e4",
        "c3"
      ],
      [
        "e2e3",
        "f8g7"
      ],
      [
        "c2",
        "c5"
      ],
      [
        "e5",
        "b2"
      ],
      [
        "a3",
        "d6"
      ],
      [
        "e2e3",
        "e8g8"
      ],
      [
        "g4e2",
        "d1e2"
      ],
      [
        "f1d3",
        "f8d6"
      ],
      [
        "g2g3g7g6",
        "f1g2f8g7"
      ],
      [
        "d3",
        "f2"
      ],
      [
        "d2",
        "f3e5"
      ],
      [
        "b6c7",
        "b6"
      ],
      [
        "e5",
        "e3"
      ],
      [
        "d2d4",
        "f7f5"
      ],
      [
        "d4",
        "b4"
      ],
      [
        "f5",
        "h7"
      ],
      [
        "c5",
        "a5"
      ],
      [
        "e6",
        "b3"
      ],
      [
        "c7",
        "b5"
      ],
      [
        "e5",
        "c3"
      ],
      [
        "f7f8",
        "q"
      ],
      [
        "d6",
        "g6"
      ],
      [
        "c4",
        "a4"
      ],
      [
        "c5",
        "c3"
      ],
      [
        "d2d1",
        "q"
      ],
      [
        "g5",
        "h7"
      ],
      [
        "f4f5",
        "g6f5"
      ],
      [
        "d7d8",
        "q"
      ],
      [
        "g2g3",
        "b8c6f1g2"
      ],
      [
        "g4f3",
        "d1f3"
      ],
      [
        "b1c3",
        "g8e7"
      ],
      [
        "e5d4",
        "f3d4"
      ],
      [
        "a7a6",
        "b5c6b7c6"
      ],
      [
        "d8e7",
        "d8"
      ],
      [
        "c4",
        "c6"
      ],
      [
        "g4f5",
        "g4"
      ],
      [
        "h7h5",
        "h2h4"
      ],
      [
        "d5",
        "d8"
      ],
      [
        "d7d6",
        "h2h3"
      ],
      [
        "e6",
        "e4"
      ],
      [
        "e2e4e7e5",
        "d2d4e5d4"
      ],
      [
        "d3",
        "b4"
      ],
      [
        "d2d3",
        "b8c6"
      ],
      [
        "f1",
        "g1f1"
      ],
      [
        "e2e3",
        "c7c6"
      ],
      [
        "h8",
        "h2"
      ],
      [
        "f3g5",
        "h7h6g5"
      ],
      [
        "e2e4c7c6",
        "g1f3"
      ],
      [
        "c3",
        "a5"
      ],
      [
        "c4",
        "c7"
      ],
      [
        "e2e4e7e6",
        "g1f3"
      ],
      [
        "e5",
        "c6b7c6"
      ],
      [
        "c6",
        "f3"
      ],
      [
        "d8",
        "e6"
      ],
      [
        "f8e7",
        "e1g1"
      ],
      [
        "a3",
        "a1"
      ],
      [
        "g4",
        "e4"
      ],
      [
        "b5b4c3",
        "e2"
      ],
      [
        "f1d3",
        "e7e6"
      ],
      [
        "d2",
        "g2"
      ],
      [
        "b8d7",
        "b1d2"
      ],
      [
        "e6d5",
        "e4d5"
      ],
      [
        "b6",
        "a4"
      ],
      [
        "c2c4",
        "d7d6"
      ],
      [
        "f3",
        "g1"
      ],
      [
        "c4",
        "e4"
      ],
      [
        "f4",
        "f6"
      ],
      [
        "a3",
        "c3"
      ],
      [
        "e4e5",
        "d6e5d4e5"
      ],
      [
        "e2e4e7e5",
        "g1f3g8f6"
      ],
      [
        "f5",
        "d5"
      ],
      [
        "a4",
        "d7"
      ],
      [
        "g5",
        "e5"
      ],
      [
        "b7b5",
        "c4d3"
      ],
      [
        "d2d3",
        "d7d5"
      ],
      [
        "b5",
        "c4b3c4"
      ],
      [
        "f3e5",
        "e8g8"
      ],
      [
        "c5",
        "e5"
      ],
      [
        "f2f1",
        "q"
      ],
      [
        "f4",
        "d4"
      ],
      [
        "a8b8",
        "b2b3"
      ],
      [
        "b3",
        "a5"
      ],
      [
        "g6",
        "e6"
      ],
      [
        "e2e4",
        "f8g7"
      ],
      [
        "d7d5e4d5",
        "f6d5"
      ],
      [
        "e2",
        "e7"
      ],
      [
        "g6",
        "f8"
      ],
      [
        "d5",
        "c4d3c4"
      ],
      [
        "d7",
        "b8"
      ],
      [
        "e2e4c7c5g1f3d7d6d2d4c5d4f3d4g8f6b1c3",
        "a7a6"
      ],
      [
        "c8",
        "g8"
      ],
      [
        "h4",
        "e4"
      ],
      [
        "f4",
        "c1"
      ],
      [
        "d2d3",
        "e7e6"
      ],
      [
        "g5",
        "d8"
      ],
      [
        "h5",
        "e5"
      ],
      [
        "e2e4c7c6g1f3",
        "d7d5e4d5c6d5"
      ],
      [
        "g8",
        "e8"
      ],
      [
        "f6",
        "f2"
      ],
      [
        "g4",
        "d1"
      ],
      [
        "f8",
        "d7"
      ],
      [
        "c6e5f3e5",
        "d6e5"
      ],
      [
        "d5d4",
        "c3d4"
      ],
      [
        "f6",
        "e5d4e5"
      ],
      [
        "h4g3",
        "h2g3"
      ],
      [
        "g1",
        "e1"
      ],
      [
        "c7c5",
        "g1f3b8c6"
      ],
      [
        "g2g3f8g7",
        "f1g2"
      ],
      [
        "a6",
        "e2"
      ],
      [
        "d5",
        "f5"
      ],
      [
        "h3",
        "f3"
      ],
      [
        "h1",
        "b1"
      ],
      [
        "g8",
        "g5"
      ],
      [
        "f7",
        "d6"
      ],
      [
        "b6",
        "b8"
      ],
      [
        "b1d2",
        "f8d6"
      ],
      [
        "a2a3",
        "e8g8"
      ],
      [
        "c5",
        "a3"
      ],
      [
        "h8",
        "a8"
      ],
      [
        "c8f5",
        "g1f3e7e6"
      ],
      [
        "e5e4",
        "f3d4"
      ],
      [
        "f4f5",
        "e6"
      ],
      [
        "g7",
        "f5"
      ],
      [
        "g2",
        "c6"
      ],
      [
        "e5",
        "e2"
      ],
      [
        "d5d4",
        "e3d4"
      ],
      [
        "c3",
        "b1"
      ],
      [
        "a6",
        "c6"
      ],
      [
        "e4",
        "h4"
      ],
      [
        "c8e6",
        "c4e6f7e6"
      ],
      [
        "e2e3",
        "b8d7"
      ],
      [
        "d4",
        "d6"
      ],
      [
        "b2",
        "f2"
      ],
      [
        "d1e2",
        "e8g8"
      ],
      [
        "d2d4",
        "c8b7"
      ],
      [
        "e2e3",
        "b8c6"
      ],
      [
        "a5",
        "d2"
      ],
      [
        "f2f4",
        "e8g8"
      ],
      [
        "d4",
        "g7"
      ],
      [
        "d2d3",
        "h7h6"
      ],
      [
        "f7",
        "h5"
      ],
      [
        "c3",
        "c5"
      ],
      [
        "e2e4g8f6",
        "e4e5f6d5"
      ],
      [
        "d5",
        "b5"
      ],
      [
        "a7",
        "d7"
      ],
      [
        "g2g3",
        "e7e6"
      ],
      [
        "c4c5",
        "b6"
      ],
      [
        "g1f3",
        "e8g8e1g1"
      ],
      [
        "f6",
        "f3"
      ],
      [
        "g1",
        "g4"
      ],
      [
        "e3",
        "h3"
      ],
      [
        "b7",
        "e7"
      ],
      [
        "f1c4",
        "d7d6"
      ],
      [
        "d8c8",
        "d8"
      ],
      [
        "d8h4",
        "g2g3"
      ],
      [
        "c5",
        "c2"
      ],
      [
        "b1",
        "e4"
      ],
      [
        "b8c6",
        "e2e3"
      ],
      [
        "a6",
        "c8"
      ],
      [
        "d2",
        "d7"
      ],
      [
        "e2e1",
        "q"
      ],
      [
        "b7b5",
        "a4b5a6b5"
      ],
      [
        "c8",
        "e6d5"
      ],
      [
        "e1",
        "f3"
      ],
      [
        "c2c4",
        "d5b6"
      ],
      [
        "f7",
        "c7"
      ],
      [
        "f1c4",
        "b8c6"
      ],
      [
        "f8",
        "c5d4"
      ],
      [
        "f5",
        "c8"
      ],
      [
        "e3",
        "c2"
      ],
      [
        "e5",
        "g7"
      ],
      [
        "d2",
        "e4d5e4"
      ],
      [
        "e2e4",
        "d7d5e4e5"
      ],
      [
        "f5",
        "f3"
      ],
      [
        "e2e4e7e5g1f3b8c6",
        "d2d4e5d4f3d4"
      ],
      [
        "c3",
        "c7"
      ],
      [
        "a7a6b5",
        "c3"
      ],
      [
        "e7",
        "a7"
      ],
      [
        "c6d4",
        "c3d4"
      ],
      [
        "e7",
        "e3"
      ],
      [
        "b4",
        "d4"
      ],
      [
        "b7",
        "f7"
      ],
      [
        "d6d5",
        "e4e5"
      ],
      [
        "f2",
        "c2"
      ],
      [
        "f1",
        "f8"
      ],
      [
        "b2",
        "e2"
      ],
      [
        "e6",
        "c6"
      ],
      [
        "g4",
        "f5g6f5"
      ],
      [
        "d2d4",
        "c7c5"
      ],
      [
        "e2e4d7d5e4d5",
        "g8f6"
      ],
      [
        "e2e4e7e6g1f3",
        "d7d5e4d5e6d5"
      ],
      [
        "e7e8",
        "q"
      ],
      [
        "f7",
        "e5"
      ],
      [
        "c8",
        "h8"
      ],
      [
        "f5g6",
        "f7g6"
      ],
      [
        "f3",
        "c3"
      ],
      [
        "e8",
        "c6"
      ],
      [
        "b7",
        "g2"
      ],
      [
        "c2",
        "b4"
      ],
      [
        "a7",
        "d4"
      ],
      [
        "b1c3",
        "c8b7"
      ],
      [
        "h5g6",
        "h5"
      ],
      [
        "f8",
        "a3"
      ],
      [
        "d6",
        "b7"
      ],
      [
        "e1",
        "c3"
      ],
      [
        "e8",
        "g7"
      ],
      [
        "f1c4",
        "f8g7"
      ],
      [
        "b1d2",
        "f8e7"
      ],
      [
        "d5",
        "d3"
      ],
      [
        "g6",
        "g4"
      ],
      [
        "h7h6",
        "h2h4"
      ],
      [
        "e6",
        "c7"
      ],
      [
        "c1",
        "g1"
      ],
      [
        "a2a3b4",
        "c6"
      ],
      [
        "c7c6",
        "e1g1"
      ],
      [
        "h4",
        "h2"
      ],
      [
        "b2",
        "c4"
      ],
      [
        "b1",
        "d3"
      ],
      [
        "c8d7",
        "e1g1"
      ],
      [
        "a5a4",
        "b3a4"
      ],
      [
        "h7h6",
        "e1g1"
      ],
      [
        "g2g4",
        "f5g6"
      ],
      [
        "d1d4",
        "b8c6"
      ],
      [
        "b4",
        "b6"
      ],
      [
        "h2h3",
        "h7h5"
      ],
      [
        "c3",
        "f6"
      ],
      [
        "e4f6",
        "g7f6"
      ],
      [
        "e4",
        "c4"
      ],
      [
        "f1d3",
        "c8g4"
      ],
      [
        "e5d6",
        "f8d6"
      ],
      [
        "c1g5",
        "e7e6"
      ],
      [
        "d7",
        "g7"
      ],
      [
        "g4g5",
        "h6g5"
      ],
      [
        "f1d3",
        "b8c6"
      ],
      [
        "g3",
        "f1"
      ],
      [
        "g1",
        "g7"
      ],
      [
        "f2",
        "h2"
      ],
      [
        "f7",
        "h7"
      ],
      [
        "e2e4d7d5e4d5d8d5b1c3d5",
        "a5"
      ],
      [
        "a3",
        "e7"
      ],
      [
        "f2f4",
        "b8c6"
      ],
      [
        "d1e2",
        "d1"
      ],
      [
        "h1",
        "a1"
      ],
      [
        "g2g3",
        "e8g8"
      ],
      [
        "d7d5",
        "c1b2"
      ],
      [
        "b7b5",
        "a2a4"
      ],
      [
        "c1e3",
        "f8g7"
      ],
      [
        "d1c1",
        "d1"
      ],
      [
        "b6",
        "b3"
      ],
      [
        "e5",
        "h5"
      ],
      [
        "e2",
        "a2"
      ],
      [
        "b6",
        "c8"
      ],
      [
        "e2e3",
        "c7c5"
      ],
      [
        "c4",
        "f1"
      ],
      [
        "d6",
        "a6"
      ],
      [
        "c2",
        "c6"
      ],
      [
        "e1g1e8g8",
        "f1e1"
      ],
      [
        "d2d3",
        "e8g8"
      ],
      [
        "b5a4",
        "b5"
      ],
      [
        "d4",
        "a4"
      ],
      [
        "d2e4",
        "f6e4"
      ],
      [
        "e3",
        "e6"
      ],
      [
        "g5",
        "c1"
      ],
      [
        "g8f6",
        "c1b2"
      ],
      [
        "d2d4",
        "c7c5d4d5"
      ],
      [
        "b6",
        "e6"
      ],
      [
        "h6",
        "f6"
      ],
      [
        "b7",
        "c5"
      ],
      [
        "d5",
        "a2"
      ],
      [
        "g4",
        "h2"
      ],
      [
        "h2h3g4",
        "h6"
      ],
      [
        "b5d7",
        "d8d7"
      ],
      [
        "e7e6",
        "e1g1"
      ],
      [
        "d5d4",
        "c3e4"
      ],
      [
        "b5b4a3b4",
        "a5b4"
      ],
      [
        "d4",
        "a7"
      ],
      [
        "g8",
        "g2"
      ],
      [
        "d6",
        "e8"
      ],
      [
        "b2",
        "g7"
      ],
      [
        "d2d4d7d5",
        "c2c4d5c4"
      ],
      [
        "e2e4c7c5",
        "b1c3b8c6"
      ],
      [
        "f1d3",
        "b8d7"
      ],
      [
        "b2b3",
        "e8g8"
      ],
      [
        "d7",
        "d3"
      ],
      [
        "f4",
        "f7"
      ],
      [
        "c5",
        "e3f2e3"
      ],
      [
        "g6",
        "g3"
      ],
      [
        "h4",
        "g5h6g5"
      ],
      [
        "b5b4c3",
        "b4"
      ],
      [
        "e2e4c7c5g1f3e7e6",
        "d2d4c5d4f3d4"
      ],
      [
        "a5",
        "d5"
      ],
      [
        "d8d1",
        "f1d1"
      ],
      [
        "f2",
        "d3"
      ],
      [
        "g5",
        "h3"
      ],
      [
        "f5",
        "g7"
      ],
      [
        "f2",
        "f5"
      ],
      [
        "b3",
        "b1"
      ],
      [
        "b2",
        "d3"
      ],
      [
        "g1",
        "g6"
      ],
      [
        "d2d4g8f6c2c4",
        "g7g6b1c3f8g7"
      ],
      [
        "c1",
        "d3"
      ],
      [
        "c8b7",
        "e1g1"
      ],
      [
        "d2f3",
        "d2"
      ],
      [
        "h2h3g4h5",
        "g2g4h5g6"
      ],
      [
        "c7c5c2c3",
        "b8c6g1f3"
      ],
      [
        "g8",
        "g3"
      ],
      [
        "a4",
        "b5c6b5"
      ],
      [
        "f1c4",
        "f8e7"
      ],
      [
        "e7",
        "e2"
      ],
      [
        "g8",
        "g4"
      ],
      [
        "f1",
        "a6"
      ],
      [
        "d3e4",
        "f5e4"
      ],
      [
        "b5",
        "a7"
      ],
      [
        "b4",
        "b7"
      ],
      [
        "g1",
        "g5"
      ],
      [
        "f2f3",
        "e8g8"
      ],
      [
        "b7b6",
        "b2b4"
      ],
      [
        "d5d4",
        "c3e2"
      ],
      [
        "g6",
        "c2"
      ],
      [
        "b3",
        "e3"
      ],
      [
        "e4d5",
        "e4f3"
      ],
      [
        "f3e4",
        "f5e4"
      ],
      [
        "c1g5",
        "f8g7"
      ],
      [
        "e5",
        "c5"
      ],
      [
        "d1d8",
        "f8d8"
      ],
      [
        "c3d5f6d5",
        "e4d5"
      ],
      [
        "h5g3",
        "h2g3"
      ],
      [
        "a4",
        "d1"
      ],
      [
        "e2e4e7e5",
        "f2f4e5f4"
      ],
      [
        "g6g5h4",
        "g3"
      ],
      [
        "c2c3",
        "f8g7"
      ],
      [
        "c1f4",
        "e8g8"
      ],
      [
        "b5",
        "d5"
      ],
      [
        "d4",
        "d7"
      ],
      [
        "d5",
        "c6b7c6"
      ],
      [
        "f7",
        "g5"
      ],
      [
        "h4",
        "g2"
      ],
      [
        "g5f4",
        "g3f4"
      ],
      [
        "g3",
        "c7"
      ],
      [
        "g2g3",
        "c7c6"
      ],
      [
        "d1",
        "f2"
      ],
      [
        "d3f5",
        "e6f5"
      ],
      [
        "e4",
        "g2"
      ],
      [
        "e2e3",
        "d7d6"
      ],
      [
        "g2g3e7e6",
        "f1g2"
      ],
      [
        "h3",
        "h6"
      ],
      [
        "e5d7",
        "d8d7"
      ],
      [
        "b7b5",
        "c4a2"
      ],
      [
        "g4f5",
        "e6f5"
      ],
      [
        "e3",
        "f1"
      ],
      [
        "a2",
        "c4"
      ],
      [
        "c8g4",
        "h2h3g4f3d1f3"
      ],
      [
        "b5",
        "b2"
      ],
      [
        "f7",
        "f4"
      ],
      [
        "e4",
        "e7"
      ],
      [
        "g4",
        "g7"
      ],
      [
        "a2",
        "d2"
      ],
      [
        "f1",
        "c4d5"
      ],
      [
        "d3",
        "d7"
      ],
      [
        "g5f6",
        "d7f6"
      ],
      [
        "d5",
        "e6f7e6"
      ],
      [
        "b2b4",
        "a7a6"
      ],
      [
        "d8d1",
        "a1d1"
      ],
      [
        "d6",
        "d2"
      ],
      [
        "f5",
        "b1"
      ],
      [
        "f5e6",
        "f7e6"
      ],
      [
        "f1e2",
        "g8f6"
      ],
      [
        "e1c1",
        "e8g8"
      ],
      [
        "c1e3",
        "f8e7"
      ],
      [
        "b1c3",
        "e7e5"
      ],
      [
        "e5",
        "d6c7d6"
      ],
      [
        "d3",
        "b2"
      ],
      [
        "c2c3",
        "b8d7"
      ],
      [
        "h5h4",
        "g3h4"
      ],
      [
        "f2",
        "c5"
      ],
      [
        "h6",
        "h4"
      ],
      [
        "d2d3",
        "f8e7"
      ],
      [
        "a5",
        "a8"
      ],
      [
        "e7e5d4d5",
        "c6e7"
      ],
      [
        "e2e4e7e5g1f3b8c6f1b5",
        "a7a6b5a4"
      ],
      [
        "g3",
        "e1"
      ],
      [
        "a5b6",
        "a7b6"
      ],
      [
        "e2e4d7d5e4d5d8d5b1c3d5",
        "d8"
      ],
      [
        "d3",
        "d6"
      ],
      [
        "c2",
        "g2"
      ],
      [
        "c2c3",
        "f8e7"
      ],
      [
        "f2f4",
        "f8g7"
      ],
      [
        "f5",
        "f2"
      ],
      [
        "h4h5",
        "g6g5"
      ],
      [
        "d5",
        "d2"
      ],
      [
        "d3",
        "a3"
      ],
      [
        "f3e5",
        "c6e5d4e5"
      ],
      [
        "b5",
        "b3"
      ],
      [
        "e5f6",
        "g7f6"
      ],
      [
        "b7",
        "b4"
      ],
      [
        "e4e5",
        "f6g4"
      ],
      [
        "c1",
        "h1"
      ],
      [
        "e7e5",
        "c1b2"
      ],
      [
        "b7",
        "d6"
      ],
      [
        "e4",
        "e1"
      ],
      [
        "a2",
        "f2"
      ],
      [
        "h3",
        "h5"
      ],
      [
        "b1d2",
        "e7e6"
      ],
      [
        "a1d1",
        "a1"
      ],
      [
        "c6",
        "c2"
      ],
      [
        "d2d4d7d5c2c4e7e6",
        "b1c3g8f6"
      ],
      [
        "h5",
        "g4h3g4"
      ],
      [
        "f5f4",
        "g3f4"
      ],
      [
        "f2",
        "b2"
      ],
      [
        "f4",
        "b8"
      ],
      [
        "e6",
        "f8"
      ],
      [
        "a7",
        "a4"
      ],
      [
        "f2",
        "e4"
      ],
      [
        "f1d3",
        "f8g7"
      ],
      [
        "d4c5",
        "f8c5"
      ],
      [
        "h2",
        "e5"
      ],
      [
        "c6c5",
        "c2c3"
      ],
      [
        "h2h3g4",
        "e6"
      ],
      [
        "c2c4",
        "e8g8"
      ],
      [
        "g8e7",
        "e1g1e8g8"
      ],
      [
        "b1c3",
        "f8c5"
      ],
      [
        "e5d6",
        "e7d6"
      ],
      [
        "a5",
        "e5"
      ],
      [
        "g1e2",
        "e8g8e1g1"
      ],
      [
        "a7",
        "c5"
      ],
      [
        "d1b3",
        "b7b6"
      ],
      [
        "f4",
        "g2"
      ],
      [
        "f7",
        "b7"
      ],
      [
        "e4",
        "h7"
      ],
      [
        "e2e4e7e5",
        "g1f3"
      ],
      [
        "g8f6",
        "f1d3"
      ],
      [
        "e1",
        "c2"
      ],
      [
        "d2d4",
        "b8d7"
      ],
      [
        "c6",
        "c3"
      ],
      [
        "g5",
        "g7"
      ],
      [
        "d4",
        "h4"
      ],
      [
        "d4",
        "c5b6c5"
      ],
      [
        "c2c3",
        "c7c5"
      ],
      [
        "f8d6",
        "f4g3"
      ],
      [
        "g4h5",
        "g6h5"
      ],
      [
        "b8",
        "g8"
      ],
      [
        "d2e4",
        "f5e4"
      ],
      [
        "d6",
        "c8"
      ],
      [
        "d5",
        "a5"
      ],
      [
        "a4",
        "a1"
      ],
      [
        "d4c3",
        "b2c3"
      ],
      [
        "e6e5d4",
        "d5"
      ],
      [
        "f3e5",
        "d7e5d4e5"
      ],
      [
        "c6d4f3d4",
        "c5d4"
      ],
      [
        "d7",
        "d2"
      ],
      [
        "a7",
        "b5"
      ],
      [
        "g2g3",
        "d7d6"
      ],
      [
        "a3",
        "c1"
      ],
      [
        "c4f7",
        "e8f7"
      ],
      [
        "a7",
        "f7"
      ],
      [
        "c1e3",
        "b8d7"
      ],
      [
        "d5",
        "g2"
      ],
      [
        "d2",
        "d8"
      ],
      [
        "h4",
        "d8"
      ],
      [
        "e6",
        "g7"
      ],
      [
        "a2",
        "a5"
      ],
      [
        "f8d8",
        "f8"
      ],
      [
        "h6",
        "h8"
      ],
      [
        "f8e8",
        "f8"
      ],
      [
        "c1e3",
        "b7b6"
      ],
      [
        "g1",
        "d1"
      ],
      [
        "f2",
        "f7"
      ],
      [
        "a7",
        "e7"
      ],
      [
        "a3",
        "a5"
      ],
      [
        "h4",
        "h7"
      ],
      [
        "c6d5",
        "c4d5"
      ],
      [
        "h4g6",
        "h7g6"
      ],
      [
        "c7",
        "g7"
      ],
      [
        "d8a5",
        "c1d2"
      ],
      [
        "b8c6",
        "f1b5"
      ],
      [
        "h7h6g5h4",
        "g7g5h4g3"
      ],
      [
        "b4",
        "c5b6c5"
      ],
      [
        "h8",
        "h1"
      ],
      [
        "f3",
        "d2e4"
      ],
      [
        "d6",
        "d3"
      ],
      [
        "g5g4",
        "h3g4"
      ],
      [
        "e2e4c7c6d2d4d7d5",
        "b1c3d5e4c3e4"
      ],
      [
        "c1",
        "f4e5"
      ],
      [
        "e7c5",
        "g1h1"
      ],
      [
        "d7",
        "d1"
      ],
      [
        "c7",
        "e8"
      ],
      [
        "e2e4c7c5g1f3b8c6",
        "f1b5"
      ],
      [
        "b7b6",
        "e1g1c8b7"
      ],
      [
        "c3",
        "e1"
      ],
      [
        "e7",
        "d6e5"
      ],
      [
        "f2",
        "g4"
      ],
      [
        "c1e3",
        "e7e6"
      ],
      [
        "c5",
        "f8"
      ],
      [
        "b7",
        "b2"
      ],
      [
        "c1g5",
        "c7c6"
      ],
      [
        "d8",
        "f7"
      ],
      [
        "b4",
        "a2"
      ],
      [
        "h5",
        "h8"
      ],
      [
        "b2b4",
        "a5b6"
      ],
      [
        "a8d8",
        "a8"
      ],
      [
        "a7a6b5",
        "a3"
      ],
      [
        "a6",
        "a4"
      ],
      [
        "d4",
        "g4"
      ],
      [
        "h2h3",
        "f8e7"
      ],
      [
        "f2f4",
        "e7e6"
      ],
      [
        "b2b3",
        "d7d5c1b2"
      ],
      [
        "d2d4",
        "c8g4"
      ],
      [
        "h4g3",
        "f2g3"
      ],
      [
        "e5",
        "e1"
      ],
      [
        "d2",
        "b1"
      ],
      [
        "b1c3",
        "c8e6"
      ],
      [
        "f8d6",
        "f4d6d8d6"
      ],
      [
        "d3",
        "e1"
      ],
      [
        "c2c4",
        "b8c6"
      ],
      [
        "d3g6",
        "f7g6"
      ],
      [
        "d5",
        "h5"
      ],
      [
        "g4",
        "g2"
      ],
      [
        "f3e5c6e5",
        "f4e5"
      ],
      [
        "e7",
        "g8"
      ],
      [
        "g5",
        "g2"
      ],
      [
        "d2d4g8f6",
        "g1f3g7g6"
      ],
      [
        "b1c3",
        "c7c5"
      ],
      [
        "e2e3",
        "c8f5"
      ],
      [
        "b2b3",
        "c4b3"
      ],
      [
        "f1d3",
        "g7g6"
      ],
      [
        "c1e3",
        "a7a6"
      ],
      [
        "a1d1",
        "a8d8"
      ],
      [
        "a5b6",
        "a5"
      ],
      [
        "f4",
        "d6c7d6"
      ],
      [
        "d3",
        "h3"
      ],
      [
        "a2",
        "e2"
      ],
      [
        "e2e4",
        "g8f6b1c3"
      ],
      [
        "b8",
        "e5"
      ],
      [
        "b1",
        "g1"
      ],
      [
        "h7",
        "e4"
      ],
      [
        "c8g4",
        "e1g1"
      ],
      [
        "c3",
        "c6"
      ],
      [
        "e3",
        "g2"
      ],
      [
        "b5",
        "e8"
      ],
      [
        "b7b5",
        "a4c2"
      ],
      [
        "c1e3",
        "b8c6"
      ],
      [
        "e2e4c7c6d2d4d7d5e4e5",
        "c8f5"
      ],
      [
        "a4",
        "d4"
      ],
      [
        "f3e5",
        "d6e5"
      ],
      [
        "h2",
        "f4"
      ],
      [
        "f1e1",
        "f1"
      ],
      [
        "g4",
        "c8"
      ],
      [
        "h7",
        "f8"
      ],
      [
        "e2e3",
        "e7e5"
      ],
      [
        "c8",
        "d6"
      ],
      [
        "f5f4",
        "e3f4"
      ],
      [
        "d7",
        "d8d7"
      ],
      [
        "d2d4",
        "e8g8"
      ],
      [
        "e6e5",
        "f4e5"
      ],
      [
        "d2d3",
        "f8g7"
      ],
      [
        "e5f3",
        "g2f3"
      ],
      [
        "b2",
        "b6"
      ],
      [
        "c6d5",
        "c6"
      ],
      [
        "d2d4g8f6",
        "g1f3e7e6"
      ],
      [
        "g3",
        "g7"
      ],
      [
        "b3",
        "c1"
      ],
      [
        "c7c6",
        "d5c6"
      ],
      [
        "h5h6",
        "g7g6"
      ],
      [
        "d2d4g8f6c2c4e7e6",
        "b1c3f8b4"
      ],
      [
        "a5",
        "b4c3b4"
      ],
      [
        "b2",
        "b5"
      ],
      [
        "b2b4",
        "b7b6"
      ],
      [
        "f2f4",
        "b8c6g1f3"
      ],
      [
        "a8d8",
        "a1d1"
      ],
      [
        "f1d3",
        "f8e7"
      ],
      [
        "f7f5",
        "f2f3"
      ],
      [
        "e5f6",
        "g4"
      ],
      [
        "e1g1",
        "a7a6"
      ],
      [
        "d6d5",
        "e4d5c6d5"
      ],
      [
        "f1b5",
        "b8c6"
      ],
      [
        "g2",
        "f4"
      ],
      [
        "g8",
        "d8"
      ],
      [
        "h6",
        "d2"
      ],
      [
        "e1g1",
        "c8g4"
      ],
      [
        "h7h6",
        "g5f4"
      ],
      [
        "f3e5",
        "d7d6"
      ],
      [
        "a1f1",
        "a1"
      ],
      [
        "h7",
        "d3"
      ],
      [
        "f6",
        "e7f6"
      ],
      [
        "g3",
        "d3"
      ],
      [
        "d2d4e7e6",
        "c2c4d7d5"
      ],
      [
        "b7",
        "f3g2f3"
      ],
      [
        "c3",
        "f3"
      ],
      [
        "c3",
        "g3"
      ],
      [
        "e6",
        "e2"
      ],
      [
        "c1f4",
        "g8f6"
      ],
      [
        "d7b6",
        "c4b3"
      ],
      [
        "a8f8",
        "a8"
      ],
      [
        "c3d5f6d5",
        "c4d5"
      ],
      [
        "d4d5",
        "c6e7"
      ],
      [
        "e3d4",
        "e3"
      ],
      [
        "f1e2",
        "e8g8"
      ],
      [
        "d4d5",
        "c6b8"
      ],
      [
        "e2",
        "g1"
      ],
      [
        "a2",
        "b4"
      ],
      [
        "d2d4g7g6",
        "c2c4f8g7"
      ],
      [
        "h1",
        "h8"
      ],
      [
        "h5",
        "d1"
      ],
      [
        "e2e3",
        "g7g6"
      ],
      [
        "h7",
        "f5"
      ],
      [
        "a2a3b4",
        "e7"
      ],
      [
        "g1f3d7d5",
        "e4e5"
      ],
      [
        "f3",
        "b3"
      ],
      [
        "c4",
        "c1"
      ],
      [
        "g3g4",
        "f5"
      ],
      [
        "f7",
        "f2"
      ],
      [
        "e7e5",
        "d4"
      ],
      [
        "b7",
        "b3"
      ],
      [
        "f3e5",
        "d8c7"
      ],
      [
        "c1b2",
        "e8g8"
      ],
      [
        "c5",
        "c8"
      ],
      [
        "f2f4",
        "f7f6"
      ],
      [
        "c3d5",
        "b7d5"
      ],
      [
        "a3",
        "a7"
      ],
      [
        "g6",
        "e8"
      ],
      [
        "a3",
        "a6"
      ],
      [
        "d4",
        "d8"
      ],
      [
        "d4c5",
        "d6c5"
      ],
      [
        "e4e5",
        "f6e8"
      ],
      [
        "b4b5a6b5",
        "a4b5"
      ],
      [
        "f6e4",
        "e1g1"
      ],
      [
        "h2h3g4",
        "d7"
      ],
      [
        "f6e4c3",
        "e4d5e4"
      ],
      [
        "c2",
        "c8"
      ],
      [
        "g2g3",
        "c7c5"
      ],
      [
        "f7f6e5f6",
        "g7f6"
      ],
      [
        "b8",
        "h8"
      ],
      [
        "d7c7",
        "d7"
      ],
      [
        "g5h4",
        "g3h4"
      ],
      [
        "h7",
        "f7"
      ],
      [
        "b7b5",
        "b2b3"
      ],
      [
        "b2b3",
        "g8f6c1b2"
      ],
      [
        "f1d1",
        "f1"
      ],
      [
        "h6",
        "f8"
      ],
      [
        "c1f4",
        "f8g7"
      ],
      [
        "f4g3",
        "h2g3"
      ],
      [
        "c7",
        "c1"
      ],
      [
        "e1e8",
        "d8e8"
      ],
      [
        "e7",
        "e1"
      ],
      [
        "f1",
        "d2"
      ],
      [
        "e2d2",
        "e2"
      ],
      [
        "e6",
        "e3"
      ],
      [
        "e1c1",
        "b7b5"
      ],
      [
        "g2g3",
        "e7e5"
      ],
      [
        "h4h5",
        "h7h6"
      ],
      [
        "b1c3",
        "c8g4"
      ],
      [
        "b1",
        "h1"
      ],
      [
        "e4e5",
        "f6g8"
      ],
      [
        "f8b4",
        "c2c3"
      ],
      [
        "e5",
        "h2"
      ],
      [
        "e2",
        "e8"
      ],
      [
        "e6",
        "h6"
      ],
      [
        "b7b8",
        "b7"
      ],
      [
        "f8d6",
        "e1g1e8g8"
      ],
      [
        "e8e1",
        "d1e1"
      ],
      [
        "c6a5",
        "b3c2"
      ],
      [
        "e7",
        "d8e7"
      ],
      [
        "c2c4",
        "b7b6"
      ],
      [
        "a7",
        "a3"
      ],
      [
        "d2d4",
        "e5e4"
      ],
      [
        "e2e4e7e5g1f3b8c6",
        "d2d4e5d4"
      ],
      [
        "d5",
        "d1"
      ],
      [
        "h2",
        "f1"
      ],
      [
        "h3",
        "h1"
      ],
      [
        "f1c4",
        "f8c5"
      ],
      [
        "d3",
        "c1"
      ],
      [
        "e3",
        "b3"
      ],
      [
        "e8g8",
        "g7"
      ],
      [
        "f1e2",
        "e7e6"
      ],
      [
        "c1d2",
        "e8g8"
      ],
      [
        "a6",
        "a2"
      ],
      [
        "b1d2",
        "b8c6"
      ],
      [
        "d1c2",
        "e8g8"
      ],
      [
        "g4g5h6",
        "g5h4g5"
      ],
      [
        "h2h3",
        "b8d7"
      ],
      [
        "g2g3e8g8",
        "f1g2"
      ],
      [
        "g5h6",
        "g7h6"
      ],
      [
        "a2a3",
        "f8e7"
      ],
      [
        "a6",
        "d6"
      ],
      [
        "h2h3",
        "g4f5"
      ],
      [
        "e2e3",
        "f8e7"
      ],
      [
        "d2d3",
        "e7e5"
      ],
      [
        "f4f5",
        "g6"
      ],
      [
        "h2h3g4",
        "e5"
      ],
      [
        "g7",
        "e6"
      ],
      [
        "a8",
        "e4"
      ],
      [
        "g2g3",
        "f8e7"
      ],
      [
        "e3",
        "e7"
      ],
      [
        "a8",
        "c6"
      ],
      [
        "a2",
        "e6"
      ],
      [
        "f2f4",
        "d7d5e4e5"
      ],
      [
        "e4d5",
        "d8d5"
      ],
      [
        "a1c1",
        "e8g8"
      ],
      [
        "b2b4",
        "a5b4a3b4"
      ],
      [
        "a1d1",
        "d8c7"
      ],
      [
        "h4",
        "h1"
      ],
      [
        "d6",
        "d1"
      ],
      [
        "b4",
        "e1"
      ],
      [
        "g8f6d2d3",
        "f8c5"
      ],
      [
        "e4e5d6e5",
        "f3e5"
      ],
      [
        "g7g5f4",
        "g3"
      ],
      [
        "a6",
        "a3"
      ],
      [
        "e7e5",
        "f4e5"
      ],
      [
        "d2",
        "h2"
      ],
      [
        "d3e4",
        "d3"
      ],
      [
        "e7d7",
        "e7"
      ],
      [
        "g4g5f6",
        "d7"
      ],
      [
        "e2e3",
        "e8g8f1d3"
      ],
      [
        "b7b5",
        "c4b5a6b5"
      ],
      [
        "f1e2",
        "f8g7"
      ],
      [
        "h2h3g4f3",
        "g2f3"
      ],
      [
        "g2g3d7d6",
        "f1g2"
      ],
      [
        "h6",
        "h3"
      ],
      [
        "d1d8",
        "a8d8"
      ],
      [
        "c8",
        "e7"
      ],
      [
        "g1f3",
        "f8b4"
      ],
      [
        "d8e7",
        "e1g1"
      ],
      [
        "h5h4",
        "g3g4"
      ],
      [
        "f6",
        "c6"
      ],
      [
        "f1e1",
        "b8d7"
      ],
      [
        "b7b6",
        "c5b6"
      ],
      [
        "e5f3",
        "e2f3"
      ],
      [
        "d8",
        "c6"
      ],
      [
        "h5",
        "d5"
      ],
      [
        "a5",
        "b3a2b3"
      ],
      [
        "e7e5",
        "d4b3"
      ],
      [
        "a7a6b5a4",
        "b7b5a4b3"
      ],
      [
        "f3",
        "f1"
      ],
      [
        "c2c3",
        "g7g6"
      ],
      [
        "e5g6",
        "h7g6"
      ],
      [
        "c7c5c2c3",
        "c5d4c3d4"
      ],
      [
        "d8b6",
        "a1b1"
      ],
      [
        "c6d4f3d4",
        "e5d4"
      ],
      [
        "c2c3",
        "d7d5"
      ],
      [
        "d8c7",
        "a1c1"
      ],
      [
        "c2c3",
        "a7a6"
      ],
      [
        "f8g7",
        "f8"
      ],
      [
        "a1b1",
        "b7b6"
      ],
      [
[...]
